unsigned char g_model[] = {
  0x20, 0x00, 0x00, 0x00, 0x54, 0x46, 0x4c, 0x33, 0x00, 0x00, 0x00, 0x00,
  0x14, 0x00, 0x20, 0x00, 0x1c, 0x00, 0x18, 0x00, 0x14, 0x00, 0x10, 0x00,
  0x0c, 0x00, 0x00, 0x00, 0x08, 0x00, 0x04, 0x00, 0x14, 0x00, 0x00, 0x00,
  0x1c, 0x00, 0x00, 0x00, 0x8c, 0x00, 0x00, 0x00, 0xe4, 0x00, 0x00, 0x00,
  0x38, 0x1c, 0x00, 0x00, 0x48, 0x1c, 0x00, 0x00, 0x8c, 0x42, 0x00, 0x00,
  0x03, 0x00, 0x00, 0x00, 0x01, 0x00, 0x00, 0x00, 0x04, 0x00, 0x00, 0x00,
  0x0e, 0xe0, 0xff, 0xff, 0x0c, 0x00, 0x00, 0x00, 0x1c, 0x00, 0x00, 0x00,
  0x3c, 0x00, 0x00, 0x00, 0x0f, 0x00, 0x00, 0x00, 0x73, 0x65, 0x72, 0x76,
  0x69, 0x6e, 0x67, 0x5f, 0x64, 0x65, 0x66, 0x61, 0x75, 0x6c, 0x74, 0x00,
  0x01, 0x00, 0x00, 0x00, 0x04, 0x00, 0x00, 0x00, 0x90, 0xff, 0xff, 0xff,
  0x22, 0x00, 0x00, 0x00, 0x04, 0x00, 0x00, 0x00, 0x08, 0x00, 0x00, 0x00,
  0x6f, 0x75, 0x74, 0x70, 0x75, 0x74, 0x5f, 0x30, 0x00, 0x00, 0x00, 0x00,
  0x01, 0x00, 0x00, 0x00, 0x04, 0x00, 0x00, 0x00, 0x52, 0xe3, 0xff, 0xff,
  0x04, 0x00, 0x00, 0x00, 0x0f, 0x00, 0x00, 0x00, 0x76, 0x69, 0x62, 0x72,
  0x61, 0x74, 0x69, 0x6f, 0x6e, 0x5f, 0x69, 0x6e, 0x70, 0x75, 0x74, 0x00,
  0x02, 0x00, 0x00, 0x00, 0x34, 0x00, 0x00, 0x00, 0x04, 0x00, 0x00, 0x00,
  0xdc, 0xff, 0xff, 0xff, 0x25, 0x00, 0x00, 0x00, 0x04, 0x00, 0x00, 0x00,
  0x13, 0x00, 0x00, 0x00, 0x43, 0x4f, 0x4e, 0x56, 0x45, 0x52, 0x53, 0x49,
  0x4f, 0x4e, 0x5f, 0x4d, 0x45, 0x54, 0x41, 0x44, 0x41, 0x54, 0x41, 0x00,
  0x08, 0x00, 0x0c, 0x00, 0x08, 0x00, 0x04, 0x00, 0x08, 0x00, 0x00, 0x00,
  0x24, 0x00, 0x00, 0x00, 0x04, 0x00, 0x00, 0x00, 0x13, 0x00, 0x00, 0x00,
  0x6d, 0x69, 0x6e, 0x5f, 0x72, 0x75, 0x6e, 0x74, 0x69, 0x6d, 0x65, 0x5f,
  0x76, 0x65, 0x72, 0x73, 0x69, 0x6f, 0x6e, 0x00, 0x26, 0x00, 0x00, 0x00,
  0x50, 0x1b, 0x00, 0x00, 0x48, 0x1b, 0x00, 0x00, 0x34, 0x1b, 0x00, 0x00,
  0x18, 0x1b, 0x00, 0x00, 0x04, 0x1b, 0x00, 0x00, 0xe8, 0x1a, 0x00, 0x00,
  0xcc, 0x1a, 0x00, 0x00, 0xb0, 0x1a, 0x00, 0x00, 0x94, 0x1a, 0x00, 0x00,
  0x24, 0x1a, 0x00, 0x00, 0x94, 0x19, 0x00, 0x00, 0x84, 0x0d, 0x00, 0x00,
  0xf4, 0x0c, 0x00, 0x00, 0xe4, 0x02, 0x00, 0x00, 0x94, 0x02, 0x00, 0x00,
  0x34, 0x01, 0x00, 0x00, 0x2c, 0x01, 0x00, 0x00, 0x24, 0x01, 0x00, 0x00,
  0x1c, 0x01, 0x00, 0x00, 0x14, 0x01, 0x00, 0x00, 0x0c, 0x01, 0x00, 0x00,
  0x04, 0x01, 0x00, 0x00, 0xfc, 0x00, 0x00, 0x00, 0xf4, 0x00, 0x00, 0x00,
  0xec, 0x00, 0x00, 0x00, 0xe4, 0x00, 0x00, 0x00, 0xdc, 0x00, 0x00, 0x00,
  0xd4, 0x00, 0x00, 0x00, 0xcc, 0x00, 0x00, 0x00, 0xc4, 0x00, 0x00, 0x00,
  0xbc, 0x00, 0x00, 0x00, 0xb4, 0x00, 0x00, 0x00, 0xac, 0x00, 0x00, 0x00,
  0xa4, 0x00, 0x00, 0x00, 0x9c, 0x00, 0x00, 0x00, 0x94, 0x00, 0x00, 0x00,
  0x74, 0x00, 0x00, 0x00, 0x04, 0x00, 0x00, 0x00, 0x66, 0xe4, 0xff, 0xff,
  0x04, 0x00, 0x00, 0x00, 0x60, 0x00, 0x00, 0x00, 0x0c, 0x00, 0x00, 0x00,
  0x08, 0x00, 0x0e, 0x00, 0x08, 0x00, 0x04, 0x00, 0x08, 0x00, 0x00, 0x00,
  0x10, 0x00, 0x00, 0x00, 0x28, 0x00, 0x00, 0x00, 0x00, 0x00, 0x06, 0x00,
  0x08, 0x00, 0x04, 0x00, 0x06, 0x00, 0x00, 0x00, 0x04, 0x00, 0x00, 0x00,
  0x01, 0x00, 0x00, 0x00, 0xeb, 0x03, 0x00, 0x00, 0x0c, 0x00, 0x18, 0x00,
  0x14, 0x00, 0x10, 0x00, 0x0c, 0x00, 0x04, 0x00, 0x0c, 0x00, 0x00, 0x00,
  0x42, 0x8e, 0xb0, 0xce, 0x38, 0x20, 0x5a, 0x83, 0x02, 0x00, 0x00, 0x00,
  0x02, 0x00, 0x00, 0x00, 0x04, 0x00, 0x00, 0x00, 0x06, 0x00, 0x00, 0x00,
  0x32, 0x2e, 0x32, 0x30, 0x2e, 0x30, 0x00, 0x00, 0xd2, 0xe4, 0xff, 0xff,
  0x04, 0x00, 0x00, 0x00, 0x10, 0x00, 0x00, 0x00, 0x31, 0x2e, 0x31, 0x34,
  0x2e, 0x30, 0x00, 0x00, 0x00, 0x00, 0x00, 0x00, 0x00, 0x00, 0x00, 0x00,
  0xb0, 0xbf, 0xff, 0xff, 0xb4, 0xbf, 0xff, 0xff, 0xb8, 0xbf, 0xff, 0xff,
  0xbc, 0xbf, 0xff, 0xff, 0xc0, 0xbf, 0xff, 0xff, 0xc4, 0xbf, 0xff, 0xff,
  0xc8, 0xbf, 0xff, 0xff, 0xcc, 0xbf, 0xff, 0xff, 0xd0, 0xbf, 0xff, 0xff,
  0xd4, 0xbf, 0xff, 0xff, 0xd8, 0xbf, 0xff, 0xff, 0xdc, 0xbf, 0xff, 0xff,
  0xe0, 0xbf, 0xff, 0xff, 0xe4, 0xbf, 0xff, 0xff, 0xe8, 0xbf, 0xff, 0xff,
  0xec, 0xbf, 0xff, 0xff, 0xf0, 0xbf, 0xff, 0xff, 0xf4, 0xbf, 0xff, 0xff,
  0xf8, 0xbf, 0xff, 0xff, 0xfc, 0xbf, 0xff, 0xff, 0x3e, 0xe5, 0xff, 0xff,
  0x04, 0x00, 0x00, 0x00, 0x50, 0x01, 0x00, 0x00, 0xb3, 0xcc, 0x77, 0xe7,
  0x81, 0x7c, 0x63, 0x17, 0xe6, 0x94, 0xd8, 0x6e, 0xa6, 0x12, 0x73, 0x73,
  0x50, 0x08, 0xf0, 0xc5, 0x23, 0x20, 0xef, 0xbb, 0x25, 0x09, 0x43, 0xd9,
  0xd6, 0xe6, 0xe3, 0x3d, 0x9a, 0x4a, 0x6a, 0x2c, 0x1d, 0xf4, 0x60, 0x72,
  0x57, 0x81, 0x6a, 0x52, 0xdb, 0x14, 0xba, 0x25, 0xd1, 0x94, 0xaf, 0x57,
  0xd6, 0x37, 0x7f, 0x82, 0xa7, 0x33, 0x7b, 0x57, 0xd2, 0x5c, 0x3d, 0x7f,
  0x33, 0x5e, 0x09, 0x0f, 0x97, 0x09, 0xe6, 0xd2, 0xd4, 0x06, 0x18, 0x24,
  0xa6, 0xb3, 0xdc, 0xf0, 0xb9, 0xb4, 0x0f, 0x18, 0x4e, 0x1c, 0x06, 0x7f,
  0xa0, 0x37, 0xd6, 0x68, 0x5c, 0xc8, 0x58, 0x8e, 0x49, 0x5c, 0x0f, 0x95,
  0x0d, 0xfe, 0x48, 0x5b, 0xe2, 0xdc, 0x28, 0x33, 0xaf, 0x98, 0x0f, 0xae,
  0xa9, 0x22, 0x7f, 0x06, 0xbe, 0x96, 0xed, 0xf0, 0x56, 0xcb, 0x31, 0xa2,
  0x68, 0xb7, 0xd1, 0xca, 0x9f, 0xbb, 0x54, 0xae, 0x7f, 0x1e, 0x3f, 0xb4,
  0xaa, 0xda, 0x1e, 0x0b, 0x27, 0x53, 0x46, 0x0c, 0x71, 0xab, 0xe6, 0xb0,
  0x57, 0x0f, 0xab, 0x07, 0x97, 0x44, 0x2e, 0x9b, 0xd2, 0x9a, 0x40, 0x45,
  0x39, 0x53, 0x64, 0xf6, 0x13, 0x7f, 0xff, 0x71, 0xf8, 0xa2, 0x7f, 0xb9,
  0xe7, 0xbb, 0x87, 0x56, 0x40, 0x4d, 0xb1, 0x1f, 0xbc, 0xec, 0xfe, 0x0a,
  0x5a, 0x57, 0x54, 0xc7, 0x6b, 0x60, 0xd4, 0xdd, 0x77, 0x3c, 0x13, 0xd6,
  0x3a, 0xa4, 0xf4, 0xcb, 0x9e, 0xae, 0xa0, 0xac, 0x8b, 0x84, 0x7f, 0x23,
  0xd7, 0xad, 0x6c, 0xcd, 0xa7, 0x54, 0xd0, 0xe4, 0xcc, 0xc9, 0x40, 0x55,
  0x5d, 0xf4, 0x69, 0x5b, 0xe5, 0x7f, 0xf0, 0x41, 0xf3, 0xe6, 0x42, 0x7f,
  0x51, 0x04, 0xfc, 0x18, 0x5c, 0xa8, 0x31, 0xb8, 0x5f, 0x74, 0xe8, 0x08,
  0xc6, 0x9e, 0x81, 0xad, 0xa9, 0x76, 0xdd, 0x60, 0x76, 0xa6, 0xdf, 0xef,
  0xcc, 0x7f, 0x2d, 0x37, 0xea, 0xb0, 0xfa, 0xba, 0x5b, 0x21, 0xc9, 0x87,
  0x49, 0xde, 0xcd, 0xf0, 0x67, 0xde, 0x2a, 0xfc, 0xcb, 0xba, 0x88, 0xf7,
  0x38, 0xa3, 0xe2, 0x4f, 0x75, 0x61, 0x3c, 0x40, 0x0d, 0x9d, 0x81, 0xca,
  0xaf, 0x27, 0xf8, 0xcf, 0x9b, 0xd2, 0x44, 0xab, 0x14, 0x1e, 0x14, 0x91,
  0x39, 0x48, 0x2d, 0x49, 0xb7, 0xd3, 0x7f, 0x5e, 0xdd, 0x6b, 0x8c, 0x59,
  0x71, 0x7f, 0x58, 0x07, 0x4c, 0xfe, 0xf9, 0x22, 0x45, 0xcf, 0xe4, 0x57,
  0x22, 0x6f, 0x36, 0x13, 0xc0, 0x90, 0x32, 0x1c, 0x9a, 0xe6, 0xff, 0xff,
  0x04, 0x00, 0x00, 0x00, 0x40, 0x00, 0x00, 0x00, 0xae, 0x00, 0x00, 0x00,
  0x68, 0xff, 0xff, 0xff, 0x11, 0xff, 0xff, 0xff, 0x1c, 0xfe, 0xff, 0xff,
  0xa7, 0x01, 0x00, 0x00, 0x57, 0xff, 0xff, 0xff, 0xea, 0xfe, 0xff, 0xff,
  0xf4, 0x00, 0x00, 0x00, 0x0f, 0x00, 0x00, 0x00, 0x59, 0xff, 0xff, 0xff,
  0xc2, 0x00, 0x00, 0x00, 0xe8, 0x00, 0x00, 0x00, 0x08, 0xfd, 0xff, 0xff,
  0x50, 0xff, 0xff, 0xff, 0xc9, 0xfe, 0xff, 0xff, 0x98, 0xfd, 0xff, 0xff,
  0xe6, 0xe6, 0xff, 0xff, 0x04, 0x00, 0x00, 0x00, 0x00, 0x0a, 0x00, 0x00,
  0x29, 0xb0, 0x29, 0xf0, 0x4f, 0xd6, 0x50, 0x0a, 0xf7, 0xad, 0x46, 0xe5,
  0x46, 0x34, 0x43, 0xbb, 0xa0, 0x73, 0x48, 0xd4, 0x5a, 0x39, 0x52, 0x76,
  0xb0, 0xdf, 0x3c, 0xe6, 0xb7, 0xa9, 0x5d, 0x4d, 0xb2, 0x7f, 0xfb, 0xb4,
  0xab, 0x02, 0xb1, 0xc0, 0xbe, 0x5c, 0x20, 0x3c, 0x48, 0xfb, 0x61, 0x65,
  0xd7, 0x45, 0x0b, 0x37, 0xf9, 0xcf, 0xd2, 0xa3, 0xea, 0x9c, 0x3d, 0x25,
  0xfc, 0xa7, 0x16, 0x22, 0x1a, 0xb9, 0xc4, 0x56, 0x38, 0xee, 0x34, 0x25,
  0x4e, 0x35, 0x54, 0xc5, 0xce, 0x12, 0xfd, 0x3d, 0x50, 0x30, 0x3b, 0xff,
  0x3a, 0x05, 0xb1, 0x10, 0xd1, 0xcd, 0x83, 0xb2, 0xf9, 0xf5, 0x42, 0xb0,
  0x32, 0xfd, 0x41, 0x45, 0xbf, 0xf3, 0x10, 0xc7, 0xdc, 0xea, 0x19, 0xd0,
  0xeb, 0x49, 0xcd, 0x86, 0x2e, 0x2b, 0x94, 0xf6, 0x16, 0x9d, 0xd7, 0x81,
  0x5c, 0xf0, 0xe9, 0x58, 0x18, 0x94, 0xf9, 0x21, 0xf6, 0xd5, 0x09, 0x9f,
  0x97, 0x3a, 0xc0, 0x46, 0x55, 0xed, 0xcb, 0xb8, 0x45, 0x07, 0x34, 0x8f,
  0x14, 0xf6, 0x32, 0x15, 0xe0, 0xd3, 0xba, 0x23, 0x57, 0x2c, 0xc4, 0xb5,
  0xcc, 0xcf, 0x4a, 0x88, 0x9e, 0xd6, 0x0b, 0x2c, 0xbc, 0xf9, 0x77, 0x8c,
  0x96, 0x8c, 0xd5, 0xfb, 0xcf, 0x54, 0x75, 0x0a, 0x8b, 0x52, 0x73, 0x33,
  0x99, 0x23, 0xc5, 0x54, 0x20, 0xa9, 0x5b, 0xaa, 0xda, 0xeb, 0x17, 0x1e,
  0xd9, 0x2b, 0x13, 0x48, 0xcd, 0x53, 0x57, 0xd3, 0x3a, 0x21, 0x26, 0x72,
  0x8e, 0xb2, 0xbc, 0x23, 0x17, 0x00, 0x64, 0x79, 0xb0, 0x54, 0x5f, 0x4a,
  0xcb, 0x41, 0x2c, 0xe6, 0x32, 0x4e, 0xa9, 0x76, 0x7d, 0xde, 0xa4, 0x18,
  0xf1, 0x7f, 0xa0, 0x49, 0x58, 0xe0, 0xac, 0xe6, 0xba, 0x2b, 0x54, 0x1a,
  0x0e, 0x56, 0xc8, 0x42, 0x7f, 0xb9, 0xae, 0x22, 0xf5, 0xe4, 0x5f, 0xfa,
  0x4f, 0x5c, 0xf4, 0xa9, 0xad, 0xd8, 0x6b, 0x09, 0xc2, 0xa0, 0x62, 0x4f,
  0x0d, 0xfe, 0x4c, 0xc6, 0x77, 0xc7, 0x25, 0x0c, 0xee, 0xa7, 0xe1, 0xd4,
  0x33, 0x74, 0x61, 0x25, 0x40, 0xc6, 0xc9, 0x0d, 0x17, 0xa5, 0x46, 0x3e,
  0x6b, 0xf6, 0x64, 0x0e, 0x36, 0xd1, 0xde, 0x15, 0x43, 0xfc, 0xfc, 0x0e,
  0xca, 0x26, 0xd5, 0x69, 0xa1, 0x14, 0x15, 0x68, 0xe5, 0xb2, 0xcf, 0xe6,
  0xdd, 0x49, 0x2e, 0x2c, 0x3b, 0x06, 0xc7, 0x39, 0x1d, 0x77, 0xd2, 0x07,
  0xc9, 0xeb, 0x18, 0x9f, 0xe3, 0x10, 0x1d, 0xc3, 0xa9, 0xf5, 0xd3, 0x4c,
  0xfc, 0x39, 0x28, 0x4f, 0x7d, 0x34, 0x2d, 0x36, 0x68, 0x07, 0x74, 0x79,
  0x9e, 0x31, 0x8a, 0xfc, 0x4b, 0x4f, 0xdc, 0x73, 0x40, 0xda, 0x9a, 0xe4,
  0xcd, 0x0e, 0x2e, 0x64, 0x3c, 0xe2, 0xed, 0xab, 0xf1, 0xa8, 0xb5, 0x7a,
  0xa9, 0xf3, 0x1e, 0x1e, 0x2a, 0x56, 0x9f, 0x8e, 0xa8, 0xd3, 0x89, 0xc3,
  0xf8, 0xac, 0x1f, 0xc6, 0x43, 0x22, 0xc7, 0x7f, 0xc2, 0x4a, 0x67, 0xc3,
  0x2f, 0x39, 0xfc, 0x9d, 0xdb, 0xe9, 0x25, 0x1a, 0x7f, 0xc5, 0x71, 0xc6,
  0xdf, 0x1e, 0xdf, 0x64, 0x34, 0x0d, 0x18, 0x33, 0x40, 0x1a, 0x73, 0xca,
  0x76, 0x7e, 0xc2, 0xf9, 0x70, 0x42, 0xe2, 0x5a, 0x04, 0xa5, 0x06, 0xc1,
  0xf7, 0xcd, 0xfe, 0xdf, 0x11, 0xd5, 0x52, 0x62, 0xb1, 0xd0, 0x12, 0xcc,
  0xd7, 0x1a, 0xd7, 0x03, 0xf8, 0xe6, 0xe5, 0x3c, 0xb0, 0xff, 0x1a, 0xdb,
  0x23, 0x71, 0xd8, 0x0c, 0x75, 0x19, 0xa6, 0xfe, 0xf7, 0x21, 0xb8, 0x1d,
  0x21, 0x58, 0xe5, 0x5c, 0x49, 0xab, 0x71, 0xdd, 0xe0, 0xc2, 0x6a, 0x79,
  0x0f, 0xcb, 0xf8, 0x8f, 0xf6, 0x22, 0x3a, 0xe0, 0x62, 0x17, 0x4c, 0x0e,
  0x13, 0x87, 0x2f, 0xbc, 0x9b, 0xc3, 0xf9, 0x26, 0xdb, 0x0d, 0xd6, 0xdd,
  0x4d, 0xff, 0xf9, 0x96, 0xe0, 0xd5, 0x2b, 0xb6, 0x81, 0xc5, 0x96, 0xb3,
  0x0e, 0xa3, 0xd2, 0x87, 0xc9, 0xf9, 0xa2, 0x90, 0x4b, 0xb4, 0xa5, 0x22,
  0x85, 0xc9, 0x0b, 0x46, 0x8c, 0x8f, 0xd0, 0x4d, 0x4a, 0xbe, 0x4d, 0x1c,
  0xad, 0x58, 0xf6, 0x46, 0xb5, 0xca, 0x9e, 0x9e, 0x9e, 0x97, 0x10, 0x17,
  0xa7, 0x5e, 0x07, 0x1c, 0x28, 0xee, 0x68, 0x3b, 0x35, 0xc0, 0xf6, 0x9e,
  0x32, 0xc1, 0xb7, 0x89, 0xde, 0xc8, 0xdf, 0xb0, 0x37, 0xc0, 0x33, 0x50,
  0x12, 0xb8, 0x90, 0x22, 0xe2, 0xf1, 0x8c, 0x86, 0xe2, 0x11, 0x32, 0x38,
  0x57, 0x2a, 0x57, 0x19, 0x0a, 0x0d, 0x00, 0x98, 0x24, 0xb0, 0x97, 0xaa,
  0xcf, 0xe4, 0xb7, 0xc1, 0x30, 0x5e, 0x04, 0x0a, 0xd8, 0xa7, 0x5d, 0x44,
  0xc6, 0x3e, 0xa7, 0x04, 0x3f, 0x4b, 0x3e, 0xfa, 0x19, 0x13, 0x92, 0xa9,
  0xeb, 0x05, 0x8a, 0xca, 0xc8, 0xb3, 0x81, 0xfe, 0x8b, 0x03, 0x57, 0xef,
  0xfa, 0x47, 0xe6, 0x27, 0x42, 0x22, 0xc9, 0xfe, 0x7f, 0xbc, 0xf8, 0x28,
  0x74, 0x3b, 0x04, 0x6e, 0x66, 0x75, 0xe1, 0x14, 0x43, 0x3a, 0xf4, 0x21,
  0xbe, 0x0d, 0x2b, 0xc0, 0xac, 0x43, 0x34, 0x22, 0x73, 0x40, 0x3d, 0x08,
  0xa4, 0x31, 0x47, 0x66, 0x79, 0xd9, 0x41, 0x29, 0x57, 0x70, 0xfb, 0xe9,
  0x55, 0xb3, 0x12, 0x3a, 0x62, 0xa0, 0xfa, 0xd1, 0xaf, 0x23, 0xe5, 0x17,
  0x36, 0xc9, 0xec, 0x2b, 0x32, 0x53, 0xd5, 0x2b, 0xa4, 0x6a, 0x46, 0x9f,
  0x54, 0x50, 0x2b, 0x69, 0xbf, 0x1c, 0x4e, 0xb3, 0x9f, 0x10, 0x62, 0x15,
  0xaf, 0x92, 0x18, 0xbe, 0x57, 0xba, 0x12, 0x43, 0x1b, 0x48, 0x5f, 0xe7,
  0xfe, 0x09, 0xe7, 0xbe, 0xb1, 0x85, 0x89, 0x3f, 0x83, 0x3b, 0x10, 0x1e,
  0xd5, 0x03, 0x5f, 0x28, 0x9b, 0x1b, 0xf8, 0x48, 0x13, 0xf5, 0x14, 0x75,
  0xc2, 0x5a, 0xd2, 0x33, 0xff, 0x4c, 0x5f, 0x12, 0x02, 0x3a, 0x4e, 0x8b,
  0x53, 0x95, 0x7f, 0x13, 0x6f, 0xbd, 0x62, 0x5f, 0x5f, 0xfa, 0xb4, 0xbb,
  0x62, 0xbd, 0x39, 0x6c, 0xcb, 0xe9, 0x21, 0x34, 0xfa, 0x5f, 0xd1, 0xe1,
  0xc3, 0x7a, 0x66, 0xc3, 0x7b, 0xe6, 0xdc, 0xb0, 0xfa, 0xab, 0xba, 0x0a,
  0xdf, 0x38, 0x53, 0xf8, 0x6e, 0x22, 0x79, 0xcc, 0x22, 0x0c, 0xaa, 0xe4,
  0x24, 0x23, 0xe9, 0xca, 0x7a, 0x1f, 0xe1, 0x14, 0xb7, 0xf8, 0xdd, 0xd2,
  0xe8, 0xe7, 0x99, 0x9f, 0x0d, 0x1b, 0xf9, 0x3c, 0x0b, 0x2e, 0x3d, 0x5f,
  0x5b, 0x81, 0x31, 0x08, 0xa2, 0x4d, 0xbc, 0xaa, 0x1b, 0xa1, 0x96, 0x3b,
  0x75, 0x20, 0xf8, 0x9e, 0xb8, 0x98, 0x66, 0x29, 0x7b, 0x1c, 0x37, 0xa6,
  0x24, 0x14, 0x06, 0x06, 0xcc, 0x23, 0xfa, 0xbb, 0x95, 0xe0, 0x2d, 0xf3,
  0xe3, 0x4a, 0x3e, 0xef, 0x13, 0x47, 0xc6, 0x1c, 0x74, 0xff, 0x0e, 0x27,
  0xda, 0x5e, 0x30, 0xd2, 0x7e, 0xf8, 0x9f, 0xe8, 0x13, 0x72, 0xa1, 0xb0,
  0x9e, 0xba, 0x04, 0x5b, 0x90, 0x3c, 0x60, 0x91, 0x0c, 0xfe, 0x15, 0x8a,
  0xd5, 0x79, 0x92, 0xf4, 0x1e, 0xcc, 0x6a, 0x1b, 0x54, 0xf1, 0x34, 0x96,
  0xf3, 0x16, 0xab, 0xe1, 0x40, 0xf4, 0x57, 0x79, 0xe4, 0xd5, 0x36, 0x55,
  0x92, 0x6e, 0xa2, 0x62, 0xd8, 0xaa, 0x11, 0xdd, 0xda, 0x9d, 0xb5, 0x95,
  0x56, 0xcc, 0x17, 0x23, 0x63, 0xa0, 0x68, 0x68, 0xb5, 0x69, 0x81, 0xc9,
  0x37, 0xcb, 0xda, 0x41, 0x11, 0xcf, 0xee, 0x34, 0xa8, 0x5d, 0xf1, 0x3e,
  0x9c, 0x68, 0x41, 0xe1, 0xaf, 0x4a, 0x3b, 0x59, 0xfd, 0xd8, 0x5c, 0x4a,
  0xa3, 0x95, 0xbd, 0x6a, 0x19, 0x74, 0xd0, 0x94, 0x03, 0xe4, 0x2f, 0x7f,
  0xe9, 0x15, 0xb1, 0xb6, 0xfb, 0x4c, 0x02, 0x1d, 0xce, 0x13, 0xbc, 0x52,
  0x2c, 0x2b, 0xd8, 0x60, 0x2b, 0xc9, 0xd2, 0x51, 0xac, 0x50, 0x17, 0x68,
  0xaa, 0xb2, 0xb9, 0xee, 0xe8, 0xae, 0xb4, 0x46, 0x05, 0xcc, 0x62, 0xae,
  0xba, 0x32, 0xc7, 0xd9, 0x25, 0xd9, 0x93, 0x28, 0x41, 0x49, 0x2e, 0xdf,
  0x7f, 0x52, 0xf1, 0xfb, 0xa8, 0x54, 0xed, 0x65, 0x2c, 0x4d, 0x46, 0xc2,
  0x32, 0xd5, 0x66, 0xbd, 0x48, 0x28, 0x4b, 0x19, 0xed, 0x4a, 0xe2, 0xe4,
  0xad, 0xec, 0x67, 0xe4, 0x19, 0x29, 0xd1, 0x78, 0x47, 0xc7, 0x67, 0x72,
  0x49, 0x9f, 0x75, 0x0f, 0x4f, 0xee, 0x29, 0x2f, 0x4a, 0xdd, 0x61, 0xc3,
  0xdd, 0x51, 0x1f, 0x07, 0x4e, 0xb3, 0x2a, 0xcb, 0x3d, 0xa9, 0xd3, 0xa1,
  0xe1, 0x5c, 0x09, 0x17, 0xc1, 0x72, 0x71, 0xf0, 0x0e, 0xe3, 0xf5, 0xe8,
  0xea, 0xd2, 0x98, 0x00, 0xcc, 0xde, 0x46, 0xc2, 0x26, 0xe1, 0xda, 0x7f,
  0x16, 0x48, 0x0f, 0x30, 0x16, 0xd6, 0xb6, 0xae, 0xfa, 0xda, 0x07, 0xd0,
  0x3b, 0x33, 0xe2, 0xa8, 0xe0, 0xf9, 0x6c, 0x97, 0x3b, 0x5c, 0x2e, 0xb3,
  0x67, 0x38, 0x20, 0xd6, 0xbd, 0x0e, 0xad, 0x42, 0xdc, 0x0f, 0xb8, 0xf5,
  0xbe, 0x3a, 0x86, 0x36, 0x28, 0xfc, 0xd5, 0xc9, 0xe7, 0xe6, 0x64, 0x68,
  0xc2, 0xb7, 0x45, 0xdd, 0x68, 0x33, 0xd6, 0x8b, 0x1a, 0xb3, 0xe8, 0x69,
  0x9a, 0xc7, 0x78, 0x60, 0xa3, 0xd0, 0xbd, 0xf1, 0xc2, 0xfa, 0x5d, 0xb4,
  0xf3, 0xc4, 0xe7, 0x14, 0x12, 0x02, 0xeb, 0xa7, 0x11, 0x38, 0x1b, 0x82,
  0xc9, 0xc9, 0x26, 0xe4, 0x31, 0x14, 0x49, 0xd3, 0x30, 0xcc, 0x82, 0x48,
  0x60, 0xcd, 0x1e, 0xc9, 0x00, 0x9f, 0x2a, 0x81, 0x46, 0xc2, 0xf2, 0xb6,
  0xbd, 0x45, 0x50, 0x9a, 0x58, 0xe4, 0x26, 0x1b, 0x95, 0xd0, 0xcd, 0xf9,
  0x37, 0xff, 0xbf, 0xbc, 0x9c, 0x0d, 0x2f, 0x62, 0xb1, 0x15, 0x06, 0x8b,
  0x91, 0xd2, 0xe2, 0x3e, 0x2e, 0x0b, 0x3c, 0xe5, 0x44, 0xfb, 0xfa, 0x32,
  0x86, 0xf6, 0xd8, 0x1e, 0xb5, 0x05, 0xa2, 0xe7, 0x77, 0x11, 0x58, 0x99,
  0x92, 0x9a, 0xb2, 0x6e, 0xdb, 0xa0, 0x52, 0x2b, 0xc2, 0x6e, 0x5a, 0xae,
  0x04, 0xcc, 0x11, 0xd2, 0x23, 0x9e, 0xab, 0xf7, 0x81, 0xf5, 0xac, 0x86,
  0xc6, 0x9c, 0x8f, 0x4d, 0xbc, 0xb2, 0xf3, 0x65, 0x5d, 0x3e, 0xd9, 0xc3,
  0x4c, 0x33, 0x91, 0xb3, 0x41, 0xcf, 0x62, 0xb3, 0x19, 0x9a, 0xa2, 0xcd,
  0xde, 0xf7, 0x33, 0x87, 0x08, 0x09, 0x33, 0x03, 0x01, 0xa7, 0x0a, 0xee,
  0x32, 0xe1, 0x0f, 0x5e, 0x4d, 0x37, 0x21, 0xce, 0x44, 0x5c, 0x21, 0xf5,
  0x53, 0x3f, 0x9f, 0xe6, 0xfd, 0xa1, 0x46, 0x77, 0xd2, 0x08, 0xfb, 0x0c,
  0xdd, 0x39, 0x91, 0xe9, 0xc6, 0xa6, 0x4e, 0x16, 0xc5, 0xb2, 0xfb, 0xcd,
  0xf1, 0x5f, 0x15, 0x3f, 0xfc, 0xf4, 0x62, 0xcf, 0xd7, 0x7f, 0xee, 0xf6,
  0x45, 0xc3, 0xb3, 0xa2, 0xc9, 0x2d, 0xea, 0xb5, 0xb9, 0xc7, 0x9b, 0x4d,
  0xa1, 0x5d, 0xef, 0xff, 0x6d, 0xa5, 0x2f, 0xc1, 0x0c, 0xdd, 0xbf, 0xd5,
  0x5c, 0x1f, 0xf1, 0x49, 0xc8, 0xb8, 0xe0, 0x4c, 0xca, 0xea, 0xf6, 0xf4,
  0x20, 0xe1, 0x35, 0xef, 0xde, 0xf1, 0xad, 0x55, 0x14, 0x70, 0x9e, 0x48,
  0x1d, 0xca, 0xed, 0xa7, 0xe1, 0xbc, 0xc3, 0xd3, 0x1e, 0xf3, 0x83, 0x0e,
  0xde, 0xe3, 0xe0, 0x6a, 0x37, 0x16, 0xbe, 0x99, 0x15, 0x1e, 0xf1, 0xe1,
  0xf7, 0x15, 0x21, 0xc0, 0xa5, 0xc1, 0xfa, 0x71, 0x3e, 0xad, 0xfb, 0x0a,
  0x0c, 0xf0, 0x8a, 0xa1, 0xba, 0xa3, 0x05, 0x5e, 0x9d, 0xac, 0x0a, 0x16,
  0x86, 0x01, 0xe2, 0xe0, 0xff, 0xa4, 0xdb, 0x20, 0x04, 0x47, 0x41, 0x59,
  0xe3, 0x81, 0x46, 0x4f, 0x07, 0x48, 0x02, 0xbc, 0xe9, 0xe8, 0xfd, 0x9b,
  0xf3, 0x40, 0x31, 0x11, 0xfb, 0x9a, 0xfc, 0xea, 0x98, 0x67, 0x05, 0xd3,
  0x27, 0xd9, 0xd3, 0x3b, 0x5f, 0x61, 0xb6, 0x38, 0x4a, 0x1e, 0xa3, 0x91,
  0xb1, 0xf3, 0xbc, 0x14, 0xd5, 0xf8, 0x54, 0x1a, 0xe8, 0x59, 0x68, 0x59,
  0xa2, 0x60, 0x26, 0xa1, 0xf2, 0x50, 0x97, 0x20, 0xc5, 0xe4, 0x69, 0x58,
  0xb6, 0x9c, 0xc5, 0x65, 0x29, 0x5b, 0x98, 0x02, 0x46, 0x22, 0x8c, 0x4c,
  0x28, 0xcd, 0xd8, 0x32, 0xc0, 0x14, 0x07, 0x29, 0x1b, 0xe9, 0xa5, 0x50,
  0xea, 0xdd, 0x13, 0xe1, 0xa6, 0xd8, 0xa9, 0x60, 0xc0, 0x81, 0x03, 0x9d,
  0x3d, 0x32, 0xb7, 0x26, 0xbd, 0xaf, 0x3b, 0x4b, 0xdf, 0x87, 0xa2, 0xb4,
  0xd1, 0xff, 0xc7, 0x96, 0x14, 0x2d, 0xb8, 0xb7, 0x93, 0x12, 0x0d, 0x29,
  0x1f, 0x5a, 0x55, 0xe6, 0x5e, 0xa8, 0x2d, 0xca, 0xd5, 0x46, 0x04, 0x4c,
  0x24, 0xb4, 0xcf, 0xd5, 0xfc, 0x18, 0x3d, 0x2c, 0x40, 0x82, 0xc9, 0xf6,
  0x50, 0x56, 0x99, 0xef, 0x98, 0x81, 0x8f, 0xbf, 0x63, 0x8b, 0xe1, 0x41,
  0xcc, 0xa8, 0xd7, 0x5c, 0x43, 0xaf, 0x33, 0xbb, 0x6c, 0xcf, 0xc6, 0xbc,
  0x9a, 0x56, 0x4e, 0x9c, 0x3e, 0x5a, 0x0b, 0xd6, 0xeb, 0x0b, 0xb5, 0x84,
  0x09, 0x66, 0x37, 0xff, 0x38, 0x6a, 0xc8, 0x01, 0xfa, 0xb0, 0x0c, 0x43,
  0xe4, 0x68, 0xc3, 0xd4, 0xae, 0xb4, 0xa5, 0x57, 0x0a, 0x29, 0x0e, 0x43,
  0x92, 0xd7, 0x13, 0xd1, 0xf9, 0xe0, 0x8b, 0xd1, 0xe4, 0x60, 0x23, 0xc5,
  0x92, 0x0a, 0x52, 0x71, 0x54, 0x7f, 0x9b, 0x93, 0x0b, 0x68, 0x43, 0x8d,
  0xf1, 0x63, 0xcb, 0x73, 0x72, 0x05, 0x1a, 0x1d, 0xec, 0xe1, 0xda, 0x5e,
  0x10, 0xcc, 0x13, 0xbe, 0x5f, 0x35, 0x46, 0xbf, 0x06, 0x99, 0x5d, 0xf6,
  0x30, 0xfc, 0xc8, 0x35, 0x3b, 0x96, 0x64, 0x72, 0xc8, 0xfa, 0x30, 0xb2,
  0x2c, 0xad, 0xd5, 0x32, 0x51, 0x15, 0x7e, 0xeb, 0x0c, 0xbd, 0x2a, 0xf4,
  0xaf, 0x4c, 0x5c, 0x37, 0x26, 0x58, 0x1b, 0x3f, 0x06, 0x36, 0x19, 0x7f,
  0xb0, 0x18, 0x6f, 0x2a, 0xb8, 0xe9, 0x77, 0xb7, 0x15, 0xd6, 0x7f, 0xc4,
  0x7b, 0x1f, 0xc9, 0x1b, 0x65, 0x43, 0xb9, 0xdf, 0xe5, 0x63, 0xfd, 0x3c,
  0x5a, 0x7f, 0xf6, 0x9f, 0xf3, 0x69, 0xda, 0xd4, 0xa5, 0xe9, 0xeb, 0xbc,
  0x19, 0xe5, 0xb0, 0x76, 0xf1, 0xbd, 0xd5, 0x31, 0xa6, 0x34, 0xc8, 0xd6,
  0x3c, 0xfd, 0x2b, 0x79, 0x5d, 0x44, 0x65, 0x14, 0xdb, 0x34, 0x4d, 0x44,
  0xe8, 0x8f, 0xe6, 0x81, 0x9c, 0x5b, 0x03, 0x9f, 0xd9, 0x62, 0x1c, 0x9c,
  0xad, 0x1a, 0xfb, 0x06, 0xe8, 0xc9, 0x05, 0xa3, 0x53, 0x41, 0xb8, 0xb9,
  0x12, 0xeb, 0x9f, 0x2b, 0x4c, 0xee, 0x27, 0x9f, 0xdd, 0x96, 0x36, 0xc6,
  0xe1, 0xca, 0x27, 0x23, 0xbd, 0x28, 0xe8, 0xef, 0x0c, 0x94, 0x50, 0x96,
  0xba, 0x93, 0xc8, 0xaf, 0x87, 0xb6, 0xa4, 0x58, 0xe3, 0x9c, 0x44, 0xca,
  0x82, 0xd4, 0xdb, 0xb3, 0x00, 0x72, 0x64, 0x2d, 0x82, 0xee, 0x42, 0x20,
  0x9f, 0xd5, 0x49, 0xb4, 0xba, 0x48, 0xe3, 0x03, 0x2b, 0x75, 0xfb, 0x52,
  0xb8, 0x1a, 0x7f, 0xc2, 0x05, 0x67, 0x09, 0x40, 0xa8, 0x5b, 0x21, 0xd2,
  0x38, 0x16, 0x2d, 0xf1, 0x62, 0xbe, 0xd8, 0x51, 0x9e, 0xe4, 0x65, 0xc6,
  0x44, 0x61, 0xa8, 0x02, 0x3c, 0xab, 0xe2, 0x6c, 0x70, 0x26, 0x21, 0xc8,
  0xc3, 0x2e, 0x4f, 0xdf, 0xc6, 0x15, 0xe5, 0xe9, 0x5c, 0xe1, 0xa7, 0x0a,
  0x67, 0x15, 0x63, 0xc5, 0xed, 0xde, 0x64, 0xcb, 0x32, 0x56, 0x58, 0x40,
  0x5d, 0x2e, 0xd7, 0xd9, 0xaf, 0xf5, 0x4d, 0xe4, 0xdd, 0x00, 0x45, 0xab,
  0x4f, 0xe0, 0xa5, 0xd6, 0xf6, 0xf2, 0xaa, 0x03, 0x9f, 0xa9, 0x78, 0x3d,
  0x72, 0x46, 0x9d, 0x1f, 0xf1, 0x2a, 0x70, 0x30, 0x81, 0x33, 0x59, 0x19,
  0x98, 0xc6, 0x25, 0x5b, 0xf3, 0x53, 0x6c, 0x4f, 0x5c, 0xe4, 0x10, 0x5d,
  0xc3, 0x06, 0xf6, 0x25, 0x2a, 0x3a, 0x3b, 0x29, 0x24, 0x23, 0x64, 0xf0,
  0x1c, 0x61, 0xf4, 0x9f, 0x22, 0x02, 0x36, 0xe1, 0xd8, 0x0d, 0x3c, 0x74,
  0x4f, 0xd1, 0xf0, 0xe8, 0xfc, 0xaa, 0x6b, 0xac, 0x4e, 0xf0, 0x4e, 0x2e,
  0x11, 0xb5, 0x65, 0xe9, 0x1d, 0x17, 0x01, 0x93, 0x23, 0x1f, 0x20, 0x8e,
  0x4d, 0x6e, 0x1e, 0xca, 0x88, 0x38, 0x01, 0x27, 0xeb, 0xad, 0xc2, 0xa8,
  0xa2, 0x01, 0x06, 0x2e, 0x52, 0xb7, 0x95, 0xda, 0xb5, 0x88, 0x3f, 0xee,
  0xa6, 0x48, 0x45, 0xb4, 0xd2, 0x46, 0x14, 0x4c, 0x08, 0x93, 0x0d, 0xcf,
  0xe3, 0x9d, 0x4d, 0x9f, 0x71, 0x77, 0x4d, 0xa1, 0xa5, 0x81, 0xd5, 0xe1,
  0xea, 0x25, 0x33, 0x62, 0x10, 0x9b, 0x5d, 0x20, 0x6f, 0xd5, 0xdd, 0xcd,
  0xf9, 0x32, 0xd7, 0xae, 0xff, 0xbb, 0xf3, 0x1a, 0xeb, 0xaf, 0x4b, 0x6b,
  0xc5, 0x08, 0x3b, 0x2d, 0x00, 0x4a, 0x47, 0x8b, 0x46, 0x98, 0x00, 0xd2,
  0xd8, 0xfc, 0x6d, 0xd4, 0xaf, 0x3c, 0xe0, 0x48, 0xc0, 0x48, 0x14, 0x0d,
  0xee, 0xa9, 0x20, 0xb5, 0xda, 0xb8, 0x3f, 0x9d, 0xb7, 0x32, 0xed, 0x25,
  0x81, 0x06, 0x15, 0xc3, 0x1f, 0xd7, 0xc5, 0x4e, 0xaf, 0x91, 0x21, 0x29,
  0xde, 0xf6, 0xd5, 0x2e, 0x14, 0xe9, 0x99, 0xa2, 0x9f, 0xc1, 0x32, 0xe0,
  0x9f, 0x0e, 0x29, 0xa2, 0x5a, 0x27, 0xc2, 0x21, 0x5b, 0xa5, 0xc8, 0xe4,
  0x23, 0x03, 0xc5, 0x09, 0x0f, 0xeb, 0x0e, 0x99, 0xe0, 0x0a, 0x19, 0xcb,
  0x59, 0x09, 0xac, 0x78, 0x10, 0x01, 0x3a, 0xdd, 0x49, 0x2e, 0x08, 0x02,
  0xc3, 0x03, 0xf0, 0xbc, 0xb9, 0x17, 0x3d, 0xea, 0x2c, 0x58, 0x10, 0x3a,
  0xf9, 0x51, 0xe0, 0xd8, 0xdf, 0x49, 0x93, 0x54, 0x53, 0x04, 0xa6, 0x33,
  0x19, 0x00, 0x1a, 0x43, 0x19, 0x11, 0x9c, 0x39, 0xc5, 0xeb, 0x87, 0x17,
  0xce, 0xd5, 0x03, 0x10, 0xbb, 0x93, 0x48, 0x4f, 0x12, 0x57, 0x2a, 0x8d,
  0x3f, 0xa1, 0x11, 0x00, 0x05, 0xed, 0xb8, 0xfb, 0x81, 0xdb, 0x56, 0x28,
  0x09, 0x13, 0xb9, 0xdc, 0xfb, 0x3b, 0x48, 0xdf, 0xc9, 0x5a, 0xb0, 0x55,
  0x22, 0xf6, 0x69, 0x10, 0x94, 0x26, 0xd8, 0x43, 0x45, 0x07, 0x92, 0x37,
  0x6b, 0x5c, 0xd5, 0xfd, 0x9b, 0x10, 0x71, 0x21, 0xc2, 0x66, 0x83, 0xfc,
  0x58, 0x38, 0xdd, 0xbe, 0x14, 0xa5, 0x2c, 0xcc, 0xef, 0x90, 0x0a, 0xdc,
  0xab, 0x7f, 0x18, 0xc9, 0xfe, 0xa7, 0x3a, 0x45, 0x14, 0x91, 0x5f, 0xc4,
  0xb1, 0xdb, 0x91, 0x28, 0x50, 0xce, 0x06, 0x19, 0x1f, 0x0a, 0x96, 0x33,
  0x69, 0x0b, 0x25, 0xa4, 0xda, 0xfb, 0x6e, 0xa5, 0x25, 0x1e, 0xa9, 0x4d,
  0xb1, 0xd3, 0x6e, 0x5b, 0x6e, 0x6e, 0x10, 0x0d, 0x47, 0x0e, 0x02, 0x97,
  0x1e, 0xec, 0x30, 0xc5, 0xce, 0x4f, 0x23, 0x4f, 0x77, 0x14, 0x48, 0x32,
  0xf5, 0xa1, 0x32, 0x5b, 0x50, 0x0f, 0xef, 0x42, 0xaa, 0x6b, 0xd9, 0x57,
  0xeb, 0x33, 0xf1, 0x51, 0xe8, 0x51, 0x43, 0x1c, 0x37, 0xe2, 0x30, 0x72,
  0x29, 0x2e, 0x30, 0xd5, 0xbf, 0xfa, 0x1f, 0x68, 0x0b, 0xd0, 0x02, 0x39,
  0x15, 0x38, 0x51, 0x67, 0xa7, 0x31, 0x7f, 0xff, 0xc9, 0x15, 0xae, 0x7f,
  0xca, 0xea, 0xa3, 0x4d, 0x5f, 0x4c, 0x5c, 0xaf, 0x14, 0x81, 0xd8, 0xcd,
  0x57, 0xf5, 0xcc, 0x17, 0xe0, 0xbb, 0x0f, 0x17, 0x56, 0x91, 0xd4, 0xb0,
  0x7c, 0xcb, 0x20, 0x90, 0xdd, 0x8c, 0xd6, 0x22, 0xd5, 0x68, 0x35, 0xe9,
  0xca, 0xc4, 0xee, 0xd5, 0xe9, 0x74, 0xdf, 0x04, 0x69, 0xf5, 0xfc, 0x28,
  0x8c, 0xd7, 0x4b, 0x88, 0xd8, 0x57, 0x9c, 0x05, 0xe6, 0x83, 0xf0, 0x87,
  0xea, 0x59, 0xc7, 0xd1, 0x29, 0xef, 0xe7, 0x0b, 0xf1, 0x2b, 0x35, 0xf2,
  0x74, 0x47, 0xa2, 0xf6, 0x13, 0xcf, 0x35, 0x21, 0xb3, 0x4d, 0xef, 0xbf,
  0xaa, 0x25, 0xd6, 0x06, 0xf2, 0xf0, 0xff, 0xff, 0x04, 0x00, 0x00, 0x00,
  0x80, 0x00, 0x00, 0x00, 0x5b, 0x91, 0xff, 0xff, 0xfd, 0x92, 0x00, 0x00,
  0x83, 0x97, 0xff, 0xff, 0xcb, 0x72, 0xff, 0xff, 0xe0, 0xcf, 0xff, 0xff,
  0x79, 0x5e, 0xff, 0xff, 0xfb, 0x35, 0x01, 0x00, 0xad, 0xcc, 0x00, 0x00,
  0x3f, 0xb4, 0xfe, 0xff, 0x93, 0x7e, 0xff, 0xff, 0xfe, 0xef, 0xff, 0xff,
  0x03, 0xe5, 0xff, 0xff, 0x1d, 0xe7, 0xff, 0xff, 0xd3, 0x25, 0xff, 0xff,
  0x43, 0x2f, 0x00, 0x00, 0xe2, 0xa3, 0x00, 0x00, 0x71, 0x6f, 0x00, 0x00,
  0x8b, 0x5a, 0x00, 0x00, 0xcc, 0xf3, 0x00, 0x00, 0x15, 0xf1, 0xff, 0xff,
  0x9b, 0xaa, 0x00, 0x00, 0x64, 0xa0, 0xff, 0xff, 0x7f, 0x59, 0xff, 0xff,
  0xaa, 0xd8, 0x00, 0x00, 0x21, 0x63, 0xff, 0xff, 0x57, 0x38, 0xff, 0xff,
  0xe5, 0x83, 0x00, 0x00, 0xb3, 0xb8, 0x00, 0x00, 0xb9, 0xe5, 0xff, 0xff,
  0xa1, 0xde, 0xff, 0xff, 0x36, 0xb0, 0xfe, 0xff, 0x4f, 0x8d, 0x00, 0x00,
  0x7e, 0xf1, 0xff, 0xff, 0x04, 0x00, 0x00, 0x00, 0x00, 0x0c, 0x00, 0x00,
  0xea, 0xfd, 0xde, 0x03, 0xd9, 0xc9, 0xcc, 0x09, 0xcf, 0x13, 0xcc, 0xd2,
  0x0c, 0xc7, 0x60, 0xe3, 0x05, 0xdc, 0x1f, 0x4d, 0xe9, 0xfc, 0xc9, 0xfb,
  0x10, 0xc5, 0xe9, 0xe2, 0x26, 0xce, 0x2a, 0xb5, 0xc2, 0x02, 0xb4, 0x0f,
  0x7f, 0x11, 0x43, 0x27, 0xd0, 0xff, 0x72, 0x41, 0xf9, 0x2c, 0x66, 0xbb,
  0x4a, 0x28, 0x96, 0x70, 0x3b, 0x32, 0x28, 0xed, 0xde, 0xf3, 0xd9, 0xa8,
  0x54, 0x06, 0xb2, 0x36, 0xe0, 0x1a, 0x36, 0x37, 0xc3, 0x02, 0xaa, 0x40,
  0xb3, 0xc0, 0x47, 0x0a, 0xe1, 0x3f, 0xcc, 0x59, 0xb4, 0xf8, 0xb7, 0x67,
  0xdb, 0xec, 0xf5, 0xdd, 0xd4, 0xa3, 0xca, 0x13, 0x3c, 0x1d, 0x2c, 0x03,
  0xb5, 0xfa, 0x7d, 0x52, 0x50, 0x18, 0xea, 0xb0, 0x44, 0xbf, 0x34, 0x03,
  0xfe, 0x30, 0x43, 0x4e, 0xde, 0x85, 0x44, 0x38, 0x9b, 0x49, 0xe4, 0x08,
  0x6f, 0xee, 0x3c, 0x44, 0xf1, 0xdf, 0xac, 0xef, 0xd4, 0x27, 0xff, 0xb6,
  0xa5, 0xea, 0xf6, 0x41, 0x67, 0x32, 0xb9, 0x2d, 0x4f, 0x71, 0x91, 0x35,
  0xd7, 0xef, 0x11, 0x40, 0x14, 0xdf, 0x7a, 0x88, 0x44, 0x7f, 0x5a, 0x60,
  0x4c, 0x56, 0x15, 0x9b, 0x40, 0x0b, 0x2a, 0xfd, 0x3d, 0xe4, 0x5a, 0xcf,
  0x13, 0x7f, 0x25, 0xf7, 0x2e, 0xaf, 0xa1, 0xf9, 0xea, 0x8b, 0x26, 0xe3,
  0xe2, 0xb2, 0x45, 0xe9, 0xb5, 0xe1, 0x20, 0xbe, 0x53, 0xf0, 0xc5, 0xc1,
  0xfa, 0xa0, 0x0b, 0x0e, 0xb8, 0xdb, 0x4f, 0x91, 0x05, 0xcb, 0xba, 0xce,
  0x02, 0xe0, 0x3a, 0x1c, 0xd0, 0xad, 0x59, 0xc0, 0xcd, 0x0b, 0xde, 0x57,
  0xca, 0xba, 0xa1, 0xaa, 0x0f, 0xff, 0x01, 0xec, 0x5f, 0x81, 0x6c, 0xed,
  0x77, 0x65, 0xf6, 0x22, 0xa6, 0xe1, 0x4d, 0x23, 0xae, 0xdf, 0xf3, 0xd2,
  0x27, 0xe6, 0x95, 0xb1, 0x2d, 0x02, 0x49, 0x8f, 0x73, 0x1b, 0xeb, 0xc3,
  0xb4, 0xd5, 0x54, 0x91, 0x6a, 0xbd, 0x11, 0xcb, 0xd6, 0xc9, 0xfe, 0xa6,
  0x43, 0x56, 0xe4, 0xc2, 0x28, 0xf4, 0x5f, 0xe5, 0x1d, 0xae, 0xf6, 0xf9,
  0xbb, 0x58, 0x67, 0x14, 0x68, 0x22, 0x49, 0x4f, 0xb6, 0xec, 0xec, 0xa4,
  0x3b, 0x16, 0xe8, 0xaa, 0x2e, 0xdc, 0xaf, 0xbf, 0x10, 0xaa, 0xfd, 0x14,
  0x10, 0x30, 0xfe, 0xc7, 0x1e, 0x62, 0x07, 0xc8, 0xcf, 0x97, 0x49, 0xc0,
  0x18, 0xfc, 0xaf, 0x9b, 0x14, 0xea, 0x8c, 0x04, 0xdd, 0xe2, 0x32, 0xe7,
  0x72, 0xc8, 0xe7, 0x5a, 0x26, 0xf5, 0x77, 0xd0, 0x60, 0x06, 0x7a, 0xad,
  0xdb, 0xdb, 0xfa, 0x10, 0x33, 0x44, 0x9b, 0x31, 0x95, 0xda, 0x81, 0x14,
  0xb7, 0x01, 0x1e, 0xf9, 0xc7, 0xef, 0xdb, 0xfd, 0x6b, 0xb1, 0x19, 0xc0,
  0xfa, 0x2a, 0x02, 0xdf, 0x0f, 0xd4, 0x59, 0x0b, 0xbd, 0xbe, 0x00, 0x12,
  0x12, 0x45, 0xfb, 0x36, 0x37, 0xbe, 0xb2, 0x99, 0x6a, 0x07, 0x9c, 0xd8,
  0x33, 0xec, 0xbd, 0x27, 0xb4, 0xa8, 0xf5, 0x0b, 0x63, 0x28, 0x0e, 0xb8,
  0x2f, 0x49, 0x46, 0xed, 0xf1, 0x7a, 0xf0, 0x03, 0x04, 0x5d, 0xe3, 0x7f,
  0xca, 0xfb, 0x59, 0x2c, 0xbb, 0x3f, 0x3a, 0xdc, 0x20, 0x0d, 0x2f, 0xf4,
  0x02, 0xd1, 0x79, 0x09, 0xc0, 0x9d, 0xde, 0xaa, 0xa8, 0x08, 0x9b, 0xe6,
  0xe6, 0x30, 0x2d, 0xfd, 0xeb, 0xfc, 0x56, 0x67, 0x0e, 0x59, 0x46, 0x46,
  0xf4, 0x42, 0x51, 0x04, 0x3f, 0xae, 0x11, 0xab, 0xf1, 0xfd, 0xaa, 0x1b,
  0xd3, 0xd6, 0x29, 0x1e, 0x43, 0x51, 0x26, 0x16, 0x52, 0xac, 0xc7, 0x0c,
  0x19, 0xb2, 0xb3, 0xe2, 0x08, 0x04, 0xc4, 0x50, 0xef, 0xe2, 0xb2, 0xb3,
  0xcb, 0xed, 0x78, 0xdb, 0x95, 0x7f, 0x5e, 0xa6, 0xb8, 0x11, 0x3e, 0xc3,
  0xf6, 0x75, 0x67, 0xef, 0xea, 0xa4, 0x9a, 0xd4, 0x5e, 0xe8, 0x78, 0x7c,
  0x9d, 0x78, 0xb0, 0xf6, 0xeb, 0xd7, 0x4b, 0x0b, 0x64, 0x05, 0xe8, 0x43,
  0x09, 0x7a, 0xe4, 0x41, 0x63, 0x5f, 0x31, 0x39, 0xad, 0x2a, 0xfc, 0xac,
  0xdb, 0xab, 0x43, 0x57, 0xca, 0x65, 0x2a, 0x1e, 0x26, 0x10, 0xc5, 0xf6,
  0xb7, 0xdf, 0x7a, 0x5e, 0x39, 0x0a, 0x07, 0x19, 0xe9, 0x19, 0x37, 0x5d,
  0x07, 0x0f, 0x85, 0x4b, 0x2b, 0xe4, 0x03, 0xc3, 0x3c, 0xdd, 0x52, 0xfe,
  0xe3, 0x68, 0x30, 0xf3, 0x4a, 0xf4, 0x58, 0xdc, 0x14, 0xcc, 0xfd, 0x91,
  0x12, 0xaa, 0xc3, 0xa1, 0x1b, 0x57, 0x55, 0x34, 0x03, 0x56, 0x4f, 0x8d,
  0xae, 0xdd, 0x31, 0xb6, 0xe7, 0x01, 0x6b, 0x4e, 0x31, 0xf8, 0xbe, 0x10,
  0x54, 0x34, 0xc8, 0x59, 0xd5, 0x52, 0xd0, 0xe8, 0xe1, 0x6c, 0x60, 0xcf,
  0x95, 0xec, 0x03, 0xe1, 0x21, 0x21, 0xc9, 0xb2, 0x95, 0xe0, 0x6d, 0x66,
  0x66, 0x62, 0x2d, 0x89, 0x5b, 0xcf, 0xf4, 0xda, 0x49, 0x16, 0x3f, 0x06,
  0x32, 0x2c, 0x46, 0x52, 0xcb, 0xa8, 0x4e, 0xd2, 0xa6, 0x2f, 0x48, 0x25,
  0x08, 0xf7, 0x8b, 0xe4, 0xbe, 0x93, 0x27, 0xe7, 0x7f, 0x19, 0xd6, 0x00,
  0x51, 0xc7, 0xa4, 0x42, 0xaa, 0x50, 0xcf, 0x44, 0x93, 0xb0, 0x9e, 0x5b,
  0xb7, 0x20, 0xa5, 0x25, 0x39, 0xd7, 0xbf, 0x3c, 0x3f, 0x1e, 0x43, 0x44,
  0xe9, 0xd2, 0x10, 0xea, 0xca, 0xbe, 0xb8, 0x04, 0xc8, 0xfa, 0x4b, 0x48,
  0xe8, 0x42, 0xda, 0xde, 0x54, 0x68, 0xfb, 0x67, 0xde, 0x9a, 0x1e, 0x37,
  0xda, 0xd6, 0xc8, 0x3c, 0xc6, 0xf4, 0x33, 0x66, 0xcd, 0xb7, 0x32, 0x31,
  0x2e, 0x2f, 0x2b, 0xad, 0x12, 0x4a, 0x49, 0x52, 0xb4, 0x20, 0xec, 0xf9,
  0xc5, 0x12, 0xf3, 0xdc, 0xae, 0x0e, 0x09, 0xe4, 0x08, 0x2c, 0x3a, 0x81,
  0xda, 0xe9, 0x69, 0x6f, 0xd3, 0xf5, 0x58, 0xf9, 0xc5, 0x38, 0xa2, 0x3b,
  0xf8, 0x59, 0xf6, 0xd3, 0x17, 0xa3, 0xdd, 0xde, 0x07, 0x1d, 0xa1, 0x31,
  0xed, 0xe7, 0x32, 0x24, 0x66, 0xef, 0x1f, 0x2c, 0xd5, 0xdf, 0xa5, 0x17,
  0xb6, 0xcd, 0xce, 0x1f, 0xba, 0xe1, 0xc8, 0x94, 0x4c, 0x15, 0x24, 0xb0,
  0xfa, 0xf9, 0x78, 0xcd, 0x4e, 0xa5, 0xdc, 0x73, 0xdc, 0x61, 0x4e, 0x9d,
  0xd8, 0xde, 0x78, 0x5b, 0x04, 0x0f, 0xc7, 0xd5, 0xd2, 0x26, 0x21, 0xcb,
  0x35, 0xee, 0x1c, 0x05, 0xf2, 0x4c, 0xd4, 0x38, 0x09, 0x30, 0xf8, 0xb0,
  0xb0, 0x90, 0x20, 0x6d, 0xc5, 0xde, 0xd6, 0x22, 0xac, 0xe1, 0xd1, 0x7f,
  0x13, 0xf4, 0xb4, 0xc1, 0x50, 0xba, 0x67, 0xe0, 0xe7, 0xe2, 0x17, 0xce,
  0xe9, 0x2e, 0xb1, 0x45, 0xf0, 0x17, 0x45, 0x1d, 0xb4, 0x9a, 0xf8, 0x4e,
  0xdf, 0xf4, 0xa3, 0x23, 0x2a, 0xcb, 0xbe, 0x4e, 0xe2, 0x5e, 0x2a, 0x1a,
  0xdd, 0x9e, 0x16, 0x12, 0xb6, 0x45, 0x29, 0x54, 0x04, 0xe6, 0x5c, 0x24,
  0xb5, 0xe4, 0x3c, 0xb5, 0x56, 0x51, 0xc9, 0x0a, 0x5f, 0xf7, 0xc9, 0x15,
  0xd0, 0x53, 0xeb, 0xca, 0x37, 0x92, 0x79, 0x7f, 0x58, 0x67, 0xc8, 0xa4,
  0x12, 0xc8, 0xb7, 0x10, 0x38, 0x9a, 0x4e, 0xfc, 0x99, 0xd2, 0x98, 0x56,
  0xce, 0x3e, 0xf1, 0x0f, 0xd8, 0xc6, 0xb3, 0x39, 0x9c, 0xe8, 0xa4, 0x75,
  0x14, 0x31, 0xaf, 0xe4, 0x59, 0xe4, 0x5e, 0x35, 0x06, 0x20, 0x4f, 0x0e,
  0xd4, 0x0e, 0x2b, 0xf3, 0xdb, 0x39, 0xa3, 0x44, 0xbf, 0xfc, 0x45, 0xd6,
  0x0b, 0x5b, 0x86, 0x0e, 0x1e, 0x44, 0x34, 0x58, 0xd7, 0xf9, 0xdc, 0xf5,
  0x2a, 0xcc, 0x20, 0xd6, 0x89, 0x5a, 0x5a, 0x15, 0x95, 0x12, 0xc5, 0x19,
  0x5e, 0x7f, 0x2f, 0xdd, 0xc5, 0x0d, 0x18, 0x3c, 0x2a, 0x61, 0x2f, 0x46,
  0x9a, 0xb9, 0x97, 0x61, 0xd3, 0x58, 0xba, 0xdb, 0x33, 0x03, 0x99, 0x44,
  0xa4, 0xf7, 0x14, 0xe4, 0xf8, 0xbb, 0x2a, 0x8e, 0xf3, 0x52, 0xe7, 0xbb,
  0x26, 0x4c, 0x7a, 0xa5, 0x3d, 0xfe, 0x21, 0x11, 0x2f, 0xc9, 0x5e, 0x48,
  0xd1, 0xa0, 0xa6, 0xd3, 0xb0, 0x7a, 0x90, 0x58, 0xce, 0x10, 0xce, 0x6a,
  0xec, 0x13, 0x17, 0x0e, 0xe3, 0x3f, 0x25, 0xd9, 0x21, 0xd6, 0x60, 0xec,
  0x7e, 0xc0, 0xbf, 0xd8, 0x3c, 0x48, 0x34, 0x20, 0x6e, 0x36, 0x72, 0xa8,
  0x60, 0x44, 0x96, 0xdd, 0x6b, 0x21, 0x93, 0x08, 0xc1, 0x71, 0x7f, 0xfa,
  0xf1, 0x5f, 0xb4, 0x0c, 0xcd, 0xe0, 0x2a, 0x4e, 0x03, 0x81, 0xcf, 0xaa,
  0x1e, 0xa9, 0x21, 0xf3, 0xd4, 0xd5, 0xa1, 0x6d, 0x1d, 0x7f, 0x5a, 0xa4,
  0x1d, 0x25, 0xfa, 0x09, 0xfa, 0x57, 0x15, 0x04, 0xea, 0xcc, 0x9a, 0xcb,
  0xa5, 0xb2, 0x49, 0x60, 0xea, 0x1a, 0x49, 0x5f, 0x9b, 0xc0, 0xfd, 0xdc,
  0x31, 0xe4, 0x0e, 0xd9, 0xbf, 0xe5, 0xbf, 0xf4, 0xf5, 0x44, 0x6a, 0x4d,
  0xab, 0xf8, 0x26, 0xeb, 0x09, 0x00, 0xcb, 0xfe, 0xbf, 0xf3, 0xe0, 0x16,
  0x67, 0xf4, 0x8d, 0xa3, 0xf4, 0x42, 0x00, 0x49, 0x0a, 0x21, 0xa8, 0x25,
  0xf6, 0x25, 0x1e, 0xc8, 0xeb, 0x07, 0x3d, 0x2d, 0xf3, 0xcd, 0xd9, 0xfe,
  0x39, 0xcb, 0x69, 0xc1, 0xb3, 0x59, 0xba, 0xd3, 0x77, 0xfd, 0x0a, 0x99,
  0x03, 0x03, 0x75, 0xed, 0x01, 0xe8, 0xad, 0x2e, 0xcf, 0x22, 0xc2, 0x3a,
  0x21, 0x76, 0x2a, 0x81, 0x4d, 0x2b, 0x5b, 0x3b, 0xc3, 0xae, 0x0c, 0x0c,
  0xc2, 0x8b, 0x22, 0x9c, 0x3c, 0x71, 0xa4, 0xd3, 0x39, 0xe2, 0x29, 0x2d,
  0x47, 0x2e, 0xc2, 0x85, 0xee, 0xae, 0x44, 0x5d, 0xc5, 0x63, 0xba, 0xf3,
  0x04, 0x57, 0xe5, 0x38, 0xa8, 0xfd, 0xca, 0xda, 0x11, 0x8e, 0xeb, 0x21,
  0x33, 0xf8, 0xb9, 0xcd, 0x32, 0x48, 0xcd, 0x19, 0xf9, 0xe6, 0x45, 0x09,
  0xbe, 0x2c, 0xb8, 0x22, 0xb2, 0xb6, 0x11, 0x62, 0x0e, 0xe4, 0x57, 0xce,
  0x66, 0xf0, 0x2f, 0x36, 0xf8, 0xfd, 0xe4, 0xca, 0xad, 0xf8, 0x63, 0x10,
  0x41, 0x32, 0x23, 0x3a, 0x2d, 0x30, 0x48, 0xdf, 0xfe, 0xe1, 0xfd, 0x95,
  0xbe, 0x11, 0xe9, 0xc8, 0xc8, 0x79, 0x3c, 0x3c, 0x3d, 0xe5, 0x03, 0x45,
  0xc6, 0x07, 0x7c, 0xef, 0xda, 0x3f, 0x65, 0xea, 0x81, 0x48, 0x9c, 0xe5,
  0x1f, 0x13, 0xe8, 0x2c, 0x9a, 0x42, 0x85, 0xe1, 0x3a, 0xc7, 0x2f, 0x19,
  0x4f, 0xe8, 0x05, 0xec, 0x16, 0x08, 0x56, 0x1f, 0x63, 0x4d, 0xd3, 0xa1,
  0x58, 0xeb, 0xb3, 0xf2, 0x9a, 0x30, 0xef, 0x3f, 0x48, 0xd7, 0xdd, 0x27,
  0x04, 0xd0, 0x32, 0x6f, 0x0e, 0xb8, 0xc2, 0x45, 0xba, 0x99, 0xb1, 0x0c,
  0x63, 0x1c, 0xef, 0x4f, 0x81, 0xf4, 0x0a, 0x65, 0xd6, 0x5d, 0xa3, 0xec,
  0xd3, 0xc2, 0x59, 0x69, 0xd9, 0x4d, 0xc8, 0xd7, 0x42, 0xfa, 0xfa, 0x04,
  0xae, 0xcc, 0xd1, 0xc8, 0xda, 0xe7, 0xf7, 0x1d, 0xcc, 0x29, 0x3f, 0xcd,
  0xdc, 0xb6, 0x1b, 0xd7, 0xfe, 0xc8, 0xa0, 0x13, 0x25, 0x02, 0x68, 0x5c,
  0xb4, 0x4c, 0x3f, 0x14, 0xea, 0xe9, 0xc2, 0xd1, 0x0f, 0x6d, 0xe5, 0xe9,
  0x43, 0xc8, 0x16, 0x17, 0x9a, 0x4c, 0x42, 0x43, 0xc0, 0x15, 0xf1, 0xbe,
  0x1c, 0x4e, 0x0c, 0xe1, 0xe6, 0xca, 0x95, 0x35, 0x41, 0xcc, 0x0a, 0xc4,
  0xb8, 0xb6, 0xb5, 0xd3, 0xe4, 0x9a, 0xb6, 0xb0, 0xb9, 0x2e, 0x04, 0x45,
  0x9c, 0xe0, 0x17, 0x3e, 0xdf, 0xe9, 0x41, 0xc4, 0x2f, 0x35, 0x48, 0xfc,
  0x7f, 0x07, 0x10, 0x51, 0x45, 0xab, 0x38, 0x08, 0x4d, 0xce, 0x27, 0x4a,
  0xc9, 0x65, 0x02, 0x02, 0x64, 0xf7, 0xa8, 0x37, 0x48, 0xac, 0x33, 0x52,
  0x46, 0x66, 0x14, 0x18, 0xe4, 0x2c, 0x4f, 0xb6, 0xf9, 0x3e, 0x19, 0xb8,
  0x4c, 0x2e, 0x2a, 0x54, 0x36, 0xd2, 0x65, 0xba, 0x2d, 0x54, 0xaf, 0x1f,
  0xe1, 0x42, 0x05, 0x5f, 0xb6, 0xc6, 0xc8, 0xe4, 0xd3, 0x4a, 0x2a, 0xca,
  0x24, 0x14, 0x59, 0xdd, 0xc2, 0x98, 0x63, 0x14, 0x61, 0x35, 0x34, 0xe1,
  0xef, 0x62, 0x09, 0xa7, 0xd1, 0xfd, 0x23, 0xcf, 0x0c, 0xd8, 0x22, 0x0c,
  0xfb, 0xaa, 0x13, 0xe7, 0xad, 0x90, 0xc2, 0x6e, 0x3b, 0x58, 0xa4, 0xa8,
  0xa5, 0x34, 0xb6, 0xfd, 0x24, 0xc4, 0x8e, 0xc7, 0x08, 0x25, 0x4d, 0x52,
  0x58, 0x57, 0x15, 0xf7, 0xa6, 0xca, 0x39, 0x36, 0xf1, 0xae, 0x57, 0xb9,
  0xcb, 0x02, 0x8f, 0xca, 0xba, 0xc7, 0x45, 0xf0, 0x20, 0xbe, 0xf2, 0x63,
  0x9c, 0x05, 0x42, 0x94, 0x3b, 0xc9, 0xde, 0xc5, 0x7f, 0xd8, 0x27, 0xfa,
  0x97, 0xe6, 0xb8, 0x67, 0x54, 0x50, 0xfb, 0x4e, 0xc4, 0xab, 0x44, 0xb2,
  0x6e, 0xdc, 0xb1, 0x64, 0xfb, 0xe2, 0xbd, 0x59, 0xc5, 0x2e, 0x4c, 0xd8,
  0x2a, 0xbb, 0xc1, 0xc3, 0xe0, 0xa8, 0x13, 0xe6, 0x43, 0x9f, 0x0b, 0x2b,
  0x73, 0x5f, 0x35, 0xd1, 0xca, 0x14, 0x24, 0x1e, 0xe9, 0xee, 0xf8, 0x22,
  0xeb, 0x3f, 0xb7, 0x0d, 0xf5, 0x60, 0xff, 0xf3, 0x38, 0xe4, 0x9b, 0x98,
  0xc4, 0xab, 0xd2, 0xe3, 0xde, 0x21, 0x71, 0x0e, 0xb4, 0x18, 0xe9, 0x25,
  0xb2, 0x37, 0x77, 0xb4, 0xc7, 0xb3, 0xf8, 0xbf, 0x74, 0x58, 0xdf, 0x12,
  0x4e, 0xcf, 0xd2, 0xb5, 0xfe, 0x7f, 0x99, 0xe1, 0x1f, 0x33, 0x3d, 0xbc,
  0x54, 0x31, 0xe1, 0xd3, 0xd3, 0x6b, 0xdf, 0xf2, 0x30, 0xbc, 0xab, 0x38,
  0x9f, 0x8b, 0xe3, 0xb0, 0x19, 0xca, 0xda, 0xe4, 0x08, 0x22, 0x0e, 0xff,
  0x0d, 0x38, 0x7b, 0x2e, 0x28, 0x1f, 0xc5, 0xe0, 0x44, 0x2e, 0xb8, 0xff,
  0xbd, 0x0f, 0x81, 0x2e, 0x2d, 0x39, 0x47, 0x69, 0xf1, 0xab, 0x1c, 0xae,
  0x64, 0xe5, 0x15, 0xfc, 0xed, 0x2e, 0xdf, 0xda, 0x68, 0xca, 0x07, 0x2e,
  0xad, 0xff, 0x8e, 0xfa, 0xd0, 0xf9, 0x2b, 0xad, 0xbf, 0xd1, 0x21, 0xf7,
  0xd4, 0x41, 0xf4, 0x66, 0x1b, 0x04, 0xe7, 0xee, 0xeb, 0xb4, 0xcc, 0x11,
  0xbf, 0xe9, 0x28, 0x08, 0x57, 0x0a, 0xd6, 0xef, 0xdb, 0xae, 0x1a, 0xc0,
  0x4c, 0x41, 0x38, 0xb5, 0xbe, 0xf2, 0xb3, 0xdf, 0x0e, 0x68, 0xf6, 0x33,
  0xa5, 0xb3, 0x4d, 0xa2, 0x3b, 0xd2, 0x6e, 0xca, 0xb4, 0x20, 0x45, 0xed,
  0x26, 0x3d, 0xf5, 0x45, 0x8f, 0xec, 0x51, 0xec, 0xfc, 0x41, 0xac, 0x9c,
  0xdf, 0x1f, 0x2c, 0x6e, 0x8f, 0x2f, 0xd2, 0x44, 0xbe, 0xb4, 0x38, 0x47,
  0xd6, 0xa1, 0x71, 0x29, 0xa6, 0x0d, 0x81, 0xa5, 0xec, 0xf7, 0xfe, 0x50,
  0x33, 0xac, 0xde, 0x50, 0xc6, 0xec, 0xb7, 0xb7, 0xce, 0xed, 0x75, 0x50,
  0x23, 0x46, 0x5a, 0x5e, 0x27, 0xf3, 0xe4, 0xad, 0xd4, 0xcc, 0x24, 0xb6,
  0x6b, 0x94, 0xe2, 0xcb, 0x65, 0xa2, 0xc1, 0xbb, 0x3a, 0x7e, 0x0b, 0xa0,
  0xe2, 0xc1, 0x54, 0x5d, 0xec, 0x27, 0x4e, 0xb3, 0x14, 0xa5, 0x36, 0xa1,
  0xce, 0x1e, 0xc2, 0xfa, 0x4b, 0xe0, 0xa4, 0x2b, 0x45, 0x1d, 0x28, 0x81,
  0xab, 0xfd, 0x42, 0xa7, 0xf9, 0xc0, 0xcf, 0x02, 0xb4, 0xe2, 0x5e, 0x25,
  0x28, 0x14, 0xb9, 0x4b, 0x74, 0x4b, 0xf4, 0x28, 0x7e, 0x22, 0xa7, 0xb8,
  0x0b, 0x2b, 0xcb, 0x86, 0xc3, 0xb6, 0x03, 0x2d, 0x3b, 0x17, 0xdd, 0x9b,
  0xdb, 0xbe, 0x4d, 0xcf, 0x90, 0xcd, 0x3a, 0xd6, 0x3e, 0x50, 0x3d, 0xba,
  0x67, 0x01, 0x66, 0xc9, 0xb8, 0x53, 0x44, 0x64, 0xf5, 0x6c, 0x10, 0x57,
  0x16, 0x2f, 0x97, 0xb1, 0x9d, 0x2a, 0x9e, 0x2f, 0x33, 0x28, 0x84, 0xe5,
  0x52, 0x4b, 0xa8, 0xed, 0x63, 0x7e, 0x5c, 0x52, 0x6c, 0xe1, 0x3d, 0x15,
  0xa3, 0x01, 0x41, 0xe0, 0x04, 0xc6, 0x02, 0x12, 0x35, 0x46, 0xee, 0x67,
  0x2b, 0x00, 0x3d, 0xb7, 0xcd, 0x16, 0x4f, 0x60, 0xeb, 0xd3, 0x46, 0x94,
  0xf7, 0xbf, 0x2f, 0xf8, 0xc8, 0xd3, 0xca, 0xd7, 0xab, 0xd4, 0x60, 0xc5,
  0xa7, 0x09, 0x3c, 0x14, 0xeb, 0x56, 0x59, 0x02, 0x07, 0x17, 0x13, 0x17,
  0xb2, 0xf9, 0x8a, 0x2e, 0x25, 0x57, 0xa8, 0xa7, 0xb1, 0xf8, 0x1b, 0xc1,
  0x25, 0x62, 0x13, 0xdf, 0xab, 0x81, 0x45, 0x17, 0x97, 0x13, 0x17, 0x17,
  0x31, 0x5f, 0x0f, 0x77, 0xf1, 0x9d, 0xb1, 0x1e, 0x23, 0x52, 0xee, 0xfc,
  0xd5, 0xfa, 0x1e, 0x41, 0xf3, 0xc1, 0x22, 0x3a, 0x00, 0x55, 0x54, 0x2d,
  0xe9, 0xdc, 0x12, 0xea, 0x52, 0xe5, 0x3f, 0x42, 0x81, 0x44, 0x2f, 0x38,
  0x4f, 0xf9, 0x56, 0xa7, 0xec, 0x15, 0xd6, 0x5a, 0xae, 0xe9, 0x26, 0xa6,
  0x14, 0x8c, 0x1b, 0x87, 0x67, 0xb9, 0x93, 0xc9, 0x0a, 0xa2, 0x60, 0xd3,
  0xae, 0x9b, 0x0b, 0x2d, 0x41, 0xa0, 0x51, 0x10, 0x9f, 0xca, 0xeb, 0x11,
  0x44, 0x3b, 0xcc, 0x01, 0x66, 0x26, 0x30, 0x8e, 0x63, 0xcb, 0xb8, 0xc4,
  0x17, 0x38, 0x23, 0x4e, 0xcd, 0x3d, 0x90, 0x90, 0x38, 0x0d, 0x8d, 0x48,
  0x1e, 0x60, 0xf0, 0x5d, 0x1e, 0x8e, 0x50, 0xa0, 0x26, 0x91, 0x92, 0xee,
  0xe6, 0x33, 0xe6, 0x5e, 0x96, 0x52, 0xb0, 0x37, 0xef, 0x48, 0xf2, 0xb3,
  0x1c, 0x86, 0xda, 0x46, 0x4e, 0xd5, 0x0b, 0x36, 0x12, 0x1f, 0x43, 0x27,
  0x02, 0x1f, 0xb2, 0xa4, 0x4a, 0xd4, 0xf7, 0xf2, 0x03, 0xc9, 0xf8, 0x0a,
  0x69, 0x66, 0x0a, 0xff, 0x28, 0xcd, 0x4d, 0xae, 0x4f, 0x24, 0x0a, 0xc4,
  0x09, 0x2b, 0xd4, 0x46, 0x60, 0x4d, 0x4f, 0x8e, 0xd8, 0x38, 0xd9, 0x8a,
  0x15, 0xe2, 0xce, 0x60, 0x09, 0x27, 0xb2, 0x46, 0x72, 0x5d, 0x1f, 0xdc,
  0x38, 0xa8, 0xc7, 0xd0, 0xf2, 0x37, 0xda, 0x11, 0x50, 0xfb, 0x3c, 0xbf,
  0x25, 0xd8, 0x2e, 0xbb, 0xaf, 0xcf, 0x49, 0x3f, 0xd6, 0x44, 0x12, 0xe4,
  0x42, 0x34, 0x31, 0xff, 0x7d, 0x7f, 0x39, 0x2b, 0xb9, 0x03, 0x1c, 0xdf,
  0x04, 0xd9, 0xe5, 0xad, 0xd7, 0x68, 0x85, 0x59, 0x69, 0xaa, 0x0e, 0xad,
  0x27, 0x61, 0xf9, 0x86, 0x31, 0xd1, 0x20, 0xcd, 0x48, 0x47, 0x17, 0x4b,
  0x6b, 0x4f, 0x38, 0xaa, 0x13, 0x48, 0x2b, 0xbf, 0xfa, 0x4a, 0x71, 0x74,
  0x2f, 0x0a, 0xc1, 0x3a, 0xb5, 0xdd, 0xe4, 0x0b, 0x00, 0x52, 0xcd, 0x26,
  0x2f, 0xe1, 0x3b, 0x03, 0xce, 0x38, 0xe2, 0xf8, 0x75, 0xc1, 0x1d, 0x06,
  0xc3, 0x27, 0x32, 0x00, 0x7f, 0x03, 0xf3, 0x1c, 0x9a, 0x1a, 0x23, 0x8b,
  0x62, 0xe2, 0xca, 0x0b, 0x44, 0xd1, 0xcc, 0x84, 0xc5, 0x32, 0xdc, 0x37,
  0xf1, 0xd0, 0x05, 0x23, 0xe4, 0xd8, 0x1e, 0xd3, 0x1c, 0x1e, 0x21, 0x19,
  0xc0, 0x87, 0xb7, 0xdd, 0xbb, 0x56, 0x06, 0x15, 0xf9, 0x1d, 0x1e, 0x42,
  0xb0, 0x23, 0xa2, 0xf7, 0x32, 0x0f, 0xbd, 0xfd, 0x7b, 0x41, 0x03, 0x74,
  0x4c, 0xbe, 0xd5, 0xcb, 0xd0, 0x17, 0xe2, 0xb1, 0x44, 0x83, 0x47, 0x6f,
  0x51, 0x5e, 0x93, 0x26, 0xdd, 0xc0, 0xd3, 0x56, 0x9c, 0x26, 0x45, 0xd2,
  0x04, 0xa1, 0xaa, 0x97, 0x24, 0x57, 0x0f, 0x92, 0x2b, 0xc3, 0x8b, 0xbd,
  0xca, 0xa2, 0xd1, 0xa3, 0x49, 0x9f, 0x6d, 0xb4, 0xec, 0x11, 0x1c, 0x1e,
  0xa4, 0x7f, 0x05, 0x9a, 0xe4, 0x9b, 0x4b, 0xd5, 0xc4, 0xbb, 0x22, 0xba,
  0xf7, 0x3d, 0xa6, 0x20, 0x76, 0x6b, 0xbe, 0xd3, 0x72, 0x14, 0x01, 0x5c,
  0xf0, 0x4a, 0xc4, 0x41, 0xe2, 0x05, 0x4e, 0x07, 0xba, 0x09, 0x8e, 0x95,
  0xae, 0xcd, 0xd4, 0x20, 0x67, 0x1e, 0xc8, 0x13, 0xf9, 0x2d, 0x53, 0x29,
  0x1c, 0xb3, 0x36, 0x1d, 0x2a, 0x00, 0xf6, 0x5f, 0x05, 0xbc, 0x06, 0x04,
  0xb4, 0xb3, 0x65, 0x6c, 0x57, 0xa4, 0x47, 0xda, 0x43, 0x2e, 0xf1, 0x61,
  0xbf, 0xb4, 0x09, 0x87, 0x33, 0xd4, 0x1e, 0x26, 0xfc, 0x9d, 0x49, 0x20,
  0xde, 0x43, 0x3b, 0x9f, 0xc1, 0x6d, 0x5c, 0x0c, 0xae, 0xf9, 0x39, 0x44,
  0xd8, 0xe5, 0x4a, 0xcf, 0xa7, 0x56, 0x0d, 0x7f, 0xa8, 0x6b, 0x78, 0xf0,
  0xb4, 0xdd, 0x25, 0xd0, 0x98, 0x2c, 0x04, 0xd1, 0x4f, 0xdd, 0x00, 0xa9,
  0xbe, 0xf7, 0xd1, 0xc7, 0x1d, 0xda, 0x71, 0xde, 0xf1, 0x29, 0xf0, 0x1c,
  0x3a, 0x64, 0xb9, 0x3f, 0xb9, 0xcf, 0x08, 0xa6, 0xd6, 0x2b, 0xae, 0x2d,
  0xfc, 0xfa, 0x3d, 0x0e, 0x56, 0xae, 0x62, 0x19, 0x21, 0x11, 0x0e, 0x8b,
  0xcf, 0xfc, 0xcf, 0x74, 0x1b, 0x83, 0x26, 0x81, 0x4d, 0x87, 0xca, 0x14,
  0xd4, 0x40, 0x46, 0xa6, 0xc4, 0x3c, 0x49, 0x6c, 0x3e, 0xc7, 0x68, 0x52,
  0xfa, 0xaf, 0x9b, 0x96, 0x42, 0x3a, 0x18, 0x93, 0x3f, 0x98, 0x2a, 0xad,
  0x1e, 0x46, 0x4d, 0xf8, 0xea, 0x3f, 0x62, 0xd5, 0x3f, 0xc4, 0x5e, 0xde,
  0x38, 0x81, 0x51, 0xb9, 0x43, 0x8d, 0x27, 0x40, 0xae, 0xb4, 0x5b, 0x15,
  0x4e, 0x7e, 0x3e, 0xbe, 0x6c, 0xc3, 0x0d, 0x4f, 0x67, 0x98, 0x18, 0x9a,
  0x61, 0x17, 0x79, 0x6e, 0x22, 0x98, 0x3d, 0xfb, 0x88, 0x9c, 0x05, 0x4e,
  0x2b, 0x1a, 0x6b, 0xf1, 0xa7, 0xaf, 0xbb, 0xb0, 0xd0, 0xd2, 0x0c, 0x1d,
  0xfe, 0x8b, 0x29, 0x24, 0x57, 0x0e, 0xb0, 0xa0, 0x99, 0xd2, 0xa7, 0xe4,
  0x6b, 0x28, 0x54, 0xfb, 0xd6, 0xc7, 0x10, 0x5b, 0xbd, 0xac, 0xb8, 0xef,
  0x2e, 0xd4, 0x9c, 0x9a, 0xc3, 0xd5, 0xff, 0x58, 0x06, 0x11, 0xbb, 0x5f,
  0x39, 0xb3, 0x4c, 0xd4, 0xc8, 0xbb, 0x76, 0xe4, 0xc0, 0xb3, 0xa0, 0x4c,
  0x49, 0xee, 0x54, 0xb3, 0x64, 0x87, 0x5a, 0x0b, 0xa2, 0x82, 0xed, 0x7f,
  0xd9, 0xd8, 0x7f, 0xf3, 0xa5, 0x17, 0x1e, 0xf0, 0x36, 0xd1, 0x2c, 0xb5,
  0xe3, 0xef, 0x1f, 0x70, 0xd6, 0xbc, 0x73, 0xde, 0xd0, 0x2a, 0xe4, 0x63,
  0x39, 0xc7, 0xce, 0xb2, 0x4f, 0x30, 0x03, 0xc8, 0xa3, 0x1e, 0x94, 0x1a,
  0xc2, 0x0b, 0xb3, 0x5c, 0x93, 0xe9, 0x16, 0xb0, 0x28, 0x1a, 0xe6, 0xad,
  0xc2, 0x5c, 0x31, 0xbb, 0xda, 0x2c, 0xcd, 0x5c, 0x96, 0x42, 0x44, 0x72,
  0xab, 0x8a, 0xfc, 0xec, 0x08, 0x54, 0x29, 0xe4, 0xd4, 0x61, 0x43, 0x6c,
  0x43, 0x93, 0x46, 0xc3, 0x0a, 0xc0, 0xd0, 0x0a, 0x1a, 0x0b, 0xac, 0x03,
  0x18, 0xb3, 0xd8, 0x40, 0x5b, 0xe6, 0x23, 0x61, 0x86, 0xe7, 0x42, 0x11,
  0xa5, 0xb2, 0x2c, 0x41, 0x0a, 0xd2, 0xf0, 0xad, 0x1f, 0xaa, 0x5e, 0x3e,
  0xb5, 0xf1, 0x31, 0x4d, 0xb5, 0xf8, 0xde, 0x98, 0x90, 0x9d, 0xbb, 0xef,
  0x37, 0x5f, 0x12, 0x2d, 0x06, 0xa4, 0x01, 0xec, 0xab, 0x7f, 0xc4, 0xf7,
  0x30, 0xb1, 0x32, 0x59, 0x9f, 0x1f, 0xbb, 0x33, 0xf8, 0x5f, 0xa9, 0x53,
  0x0e, 0xf2, 0x11, 0x5d, 0xaf, 0x86, 0x8f, 0x51, 0x3b, 0x3c, 0xa8, 0x9f,
  0x1a, 0x29, 0xc8, 0xb2, 0x22, 0x48, 0x03, 0xed, 0xbd, 0x1f, 0x31, 0x66,
  0x48, 0xcd, 0xa2, 0xa5, 0x19, 0xc1, 0x7d, 0xbf, 0x77, 0xe1, 0x6d, 0x05,
  0xe5, 0xfd, 0x4a, 0xb0, 0x86, 0x26, 0x16, 0xc8, 0x52, 0x43, 0xf7, 0x08,
  0x40, 0x2d, 0xc9, 0x47, 0x2e, 0x38, 0x20, 0x40, 0xd5, 0x58, 0x4a, 0x72,
  0xfd, 0xd9, 0xd0, 0xe8, 0x3f, 0x2f, 0xd2, 0x0f, 0x12, 0xb4, 0xbf, 0x9a,
  0xf9, 0xd2, 0xd6, 0xb2, 0x20, 0x0f, 0xf6, 0xa0, 0x96, 0xd8, 0xd5, 0xce,
  0x0f, 0xb2, 0xed, 0xc1, 0xba, 0xf4, 0xe3, 0x7f, 0x12, 0x46, 0xc4, 0x04,
  0x26, 0xbb, 0xe5, 0x2c, 0xac, 0x07, 0x9b, 0x5a, 0x4b, 0x01, 0x2c, 0xef,
  0xd3, 0xc1, 0xed, 0x35, 0x0f, 0x50, 0x35, 0x17, 0xf7, 0x04, 0x24, 0xbd,
  0x2b, 0x2d, 0xc0, 0x76, 0x3b, 0x3b, 0xf3, 0xfa, 0xf7, 0x4d, 0xa6, 0xfe,
  0x03, 0xb9, 0xae, 0x13, 0xf4, 0x99, 0xca, 0xb9, 0x57, 0xcf, 0x0d, 0xb5,
  0x8a, 0xfd, 0xff, 0xff, 0x04, 0x00, 0x00, 0x00, 0x80, 0x00, 0x00, 0x00,
  0x27, 0xee, 0xff, 0xff, 0xfa, 0x7b, 0xff, 0xff, 0x97, 0x66, 0x00, 0x00,
  0x58, 0x52, 0x00, 0x00, 0x80, 0xcd, 0xff, 0xff, 0x2b, 0x53, 0xff, 0xff,
  0x7d, 0x05, 0x00, 0x00, 0x0d, 0xce, 0xff, 0xff, 0x7f, 0x43, 0x00, 0x00,
  0x36, 0xe7, 0xff, 0xff, 0x21, 0x03, 0x00, 0x00, 0x64, 0xf5, 0xff, 0xff,
  0x9c, 0x11, 0x00, 0x00, 0xfe, 0xa2, 0xff, 0xff, 0xeb, 0x4e, 0x00, 0x00,
  0x6b, 0x79, 0xff, 0xff, 0x0c, 0x6a, 0x00, 0x00, 0xfd, 0x33, 0x00, 0x00,
  0xcd, 0x4f, 0x00, 0x00, 0x06, 0x44, 0x00, 0x00, 0x4c, 0xe6, 0xff, 0xff,
  0x5a, 0xdf, 0xff, 0xff, 0xad, 0x28, 0x00, 0x00, 0x17, 0x95, 0xff, 0xff,
  0x26, 0xa2, 0xff, 0xff, 0x8a, 0x78, 0x00, 0x00, 0x15, 0x05, 0x00, 0x00,
  0x94, 0x32, 0x00, 0x00, 0xbf, 0x84, 0x00, 0x00, 0xa5, 0x62, 0x00, 0x00,
  0xe5, 0x57, 0x00, 0x00, 0xb6, 0x26, 0x00, 0x00, 0x16, 0xfe, 0xff, 0xff,
  0x04, 0x00, 0x00, 0x00, 0x60, 0x00, 0x00, 0x00, 0x83, 0xb3, 0xed, 0x97,
  0x47, 0xb2, 0x6b, 0x9c, 0x43, 0xe8, 0x56, 0x8f, 0x7f, 0x31, 0x18, 0x49,
  0x37, 0xd7, 0x36, 0x74, 0xbf, 0xe7, 0x82, 0xd2, 0xd8, 0x03, 0x37, 0x55,
  0x68, 0x0a, 0x24, 0x9c, 0x0b, 0xdf, 0x51, 0x38, 0xb3, 0xed, 0xf3, 0x18,
  0xc0, 0x44, 0xea, 0x1e, 0xa7, 0xf5, 0xfa, 0x7d, 0xd6, 0xbb, 0x7f, 0x2e,
  0xad, 0x59, 0x27, 0x9b, 0xdc, 0x41, 0xc6, 0xee, 0xd6, 0xd0, 0xfe, 0x6d,
  0xcc, 0x18, 0x6f, 0x85, 0x1c, 0x76, 0x8f, 0xbb, 0xe9, 0x2f, 0x6c, 0x61,
  0x2f, 0x7f, 0x0d, 0xa8, 0x8d, 0x2e, 0x06, 0x07, 0x57, 0x3f, 0xb0, 0x23,
  0x33, 0x6d, 0xdc, 0xfc, 0x83, 0xb5, 0x8b, 0xb4, 0x82, 0xfe, 0xff, 0xff,
  0x04, 0x00, 0x00, 0x00, 0x0c, 0x00, 0x00, 0x00, 0x6e, 0xfa, 0xff, 0xff,
  0x19, 0x07, 0x00, 0x00, 0x12, 0xfb, 0xff, 0xff, 0x9a, 0xfe, 0xff, 0xff,
  0x04, 0x00, 0x00, 0x00, 0x0c, 0x00, 0x00, 0x00, 0xff, 0xff, 0xff, 0xff,
  0x03, 0x00, 0x00, 0x00, 0x20, 0x00, 0x00, 0x00, 0xb2, 0xfe, 0xff, 0xff,
  0x04, 0x00, 0x00, 0x00, 0x0c, 0x00, 0x00, 0x00, 0xff, 0xff, 0xff, 0xff,
  0x0c, 0x00, 0x00, 0x00, 0x20, 0x00, 0x00, 0x00, 0xca, 0xfe, 0xff, 0xff,
  0x04, 0x00, 0x00, 0x00, 0x0c, 0x00, 0x00, 0x00, 0xff, 0xff, 0xff, 0xff,
  0x0c, 0x00, 0x00, 0x00, 0x10, 0x00, 0x00, 0x00, 0xe2, 0xfe, 0xff, 0xff,
  0x04, 0x00, 0x00, 0x00, 0x04, 0x00, 0x00, 0x00, 0x01, 0x00, 0x00, 0x00,
  0xf2, 0xfe, 0xff, 0xff, 0x04, 0x00, 0x00, 0x00, 0x0c, 0x00, 0x00, 0x00,
  0xff, 0xff, 0xff, 0xff, 0x32, 0x00, 0x00, 0x00, 0x10, 0x00, 0x00, 0x00,
  0x0a, 0xff, 0xff, 0xff, 0x04, 0x00, 0x00, 0x00, 0x04, 0x00, 0x00, 0x00,
  0xfd, 0xff, 0xff, 0xff, 0xdc, 0xd9, 0xff, 0xff, 0xe0, 0xd9, 0xff, 0xff,
  0x0f, 0x00, 0x00, 0x00, 0x4d, 0x4c, 0x49, 0x52, 0x20, 0x43, 0x6f, 0x6e,
  0x76, 0x65, 0x72, 0x74, 0x65, 0x64, 0x2e, 0x00, 0x01, 0x00, 0x00, 0x00,
  0x14, 0x00, 0x00, 0x00, 0x00, 0x00, 0x0e, 0x00, 0x18, 0x00, 0x14, 0x00,
  0x10, 0x00, 0x0c, 0x00, 0x08, 0x00, 0x04, 0x00, 0x0e, 0x00, 0x00, 0x00,
  0x14, 0x00, 0x00, 0x00, 0x1c, 0x00, 0x00, 0x00, 0x7c, 0x04, 0x00, 0x00,
  0x80, 0x04, 0x00, 0x00, 0x84, 0x04, 0x00, 0x00, 0x04, 0x00, 0x00, 0x00,
  0x6d, 0x61, 0x69, 0x6e, 0x00, 0x00, 0x00, 0x00, 0x14, 0x00, 0x00, 0x00,
  0x44, 0x04, 0x00, 0x00, 0x04, 0x04, 0x00, 0x00, 0xa4, 0x03, 0x00, 0x00,
  0x7c, 0x03, 0x00, 0x00, 0x3c, 0x03, 0x00, 0x00, 0xe8, 0x02, 0x00, 0x00,
  0xb0, 0x02, 0x00, 0x00, 0x7c, 0x02, 0x00, 0x00, 0x38, 0x02, 0x00, 0x00,
  0x10, 0x02, 0x00, 0x00, 0xdc, 0x01, 0x00, 0x00, 0x98, 0x01, 0x00, 0x00,
  0x70, 0x01, 0x00, 0x00, 0x3c, 0x01, 0x00, 0x00, 0xf8, 0x00, 0x00, 0x00,
  0xd0, 0x00, 0x00, 0x00, 0x9c, 0x00, 0x00, 0x00, 0x64, 0x00, 0x00, 0x00,
  0x28, 0x00, 0x00, 0x00, 0x04, 0x00, 0x00, 0x00, 0xd2, 0xfc, 0xff, 0xff,
  0x0c, 0x00, 0x00, 0x00, 0x10, 0x00, 0x00, 0x00, 0x08, 0x00, 0x00, 0x00,
  0x01, 0x00, 0x00, 0x00, 0x22, 0x00, 0x00, 0x00, 0x01, 0x00, 0x00, 0x00,
  0x21, 0x00, 0x00, 0x00, 0x82, 0xfd, 0xff, 0xff, 0x1c, 0x00, 0x00, 0x00,
  0x00, 0x00, 0x00, 0x09, 0x1c, 0x00, 0x00, 0x00, 0x20, 0x00, 0x00, 0x00,
  0x07, 0x00, 0x00, 0x00, 0x00, 0x00, 0x06, 0x00, 0x08, 0x00, 0x04, 0x00,
  0x06, 0x00, 0x00, 0x00, 0x00, 0x00, 0x80, 0x3f, 0x01, 0x00, 0x00, 0x00,
  0x21, 0x00, 0x00, 0x00, 0x01, 0x00, 0x00, 0x00, 0x20, 0x00, 0x00, 0x00,
  0xae, 0xfc, 0xff, 0xff, 0x14, 0x00, 0x00, 0x00, 0x00, 0x00, 0x00, 0x08,
  0x10, 0x00, 0x00, 0x00, 0x14, 0x00, 0x00, 0x00, 0x06, 0x00, 0x00, 0x00,
  0xf8, 0xda, 0xff, 0xff, 0x01, 0x00, 0x00, 0x00, 0x20, 0x00, 0x00, 0x00,
  0x03, 0x00, 0x00, 0x00, 0x1f, 0x00, 0x00, 0x00, 0x08, 0x00, 0x00, 0x00,
  0x07, 0x00, 0x00, 0x00, 0xe2, 0xfc, 0xff, 0xff, 0x14, 0x00, 0x00, 0x00,
  0x00, 0x00, 0x00, 0x1b, 0x10, 0x00, 0x00, 0x00, 0x14, 0x00, 0x00, 0x00,
  0x05, 0x00, 0x00, 0x00, 0x2c, 0xdb, 0xff, 0xff, 0x01, 0x00, 0x00, 0x00,
  0x1f, 0x00, 0x00, 0x00, 0x02, 0x00, 0x00, 0x00, 0x1e, 0x00, 0x00, 0x00,
  0x03, 0x00, 0x00, 0x00, 0x8e, 0xfd, 0xff, 0xff, 0x0c, 0x00, 0x00, 0x00,
  0x10, 0x00, 0x00, 0x00, 0x03, 0x00, 0x00, 0x00, 0x01, 0x00, 0x00, 0x00,
  0x1e, 0x00, 0x00, 0x00, 0x02, 0x00, 0x00, 0x00, 0x1d, 0x00, 0x00, 0x00,
  0x06, 0x00, 0x00, 0x00, 0x36, 0xfd, 0xff, 0xff, 0x14, 0x00, 0x00, 0x00,
  0x00, 0x00, 0x00, 0x01, 0x1c, 0x00, 0x00, 0x00, 0x20, 0x00, 0x00, 0x00,
  0x02, 0x00, 0x00, 0x00, 0x84, 0xfd, 0xff, 0xff, 0x00, 0x00, 0x00, 0x01,
  0x01, 0x00, 0x00, 0x00, 0x01, 0x00, 0x00, 0x00, 0x01, 0x00, 0x00, 0x00,
  0x1d, 0x00, 0x00, 0x00, 0x03, 0x00, 0x00, 0x00, 0x1c, 0x00, 0x00, 0x00,
  0x0a, 0x00, 0x00, 0x00, 0x09, 0x00, 0x00, 0x00, 0x76, 0xfd, 0xff, 0xff,
  0x14, 0x00, 0x00, 0x00, 0x00, 0x00, 0x00, 0x34, 0x10, 0x00, 0x00, 0x00,
  0x14, 0x00, 0x00, 0x00, 0x01, 0x00, 0x00, 0x00, 0xc0, 0xdb, 0xff, 0xff,
  0x01, 0x00, 0x00, 0x00, 0x1c, 0x00, 0x00, 0x00, 0x02, 0x00, 0x00, 0x00,
  0x1b, 0x00, 0x00, 0x00, 0x01, 0x00, 0x00, 0x00, 0x22, 0xfe, 0xff, 0xff,
  0x0c, 0x00, 0x00, 0x00, 0x10, 0x00, 0x00, 0x00, 0x03, 0x00, 0x00, 0x00,
  0x01, 0x00, 0x00, 0x00, 0x1b, 0x00, 0x00, 0x00, 0x02, 0x00, 0x00, 0x00,
  0x1a, 0x00, 0x00, 0x00, 0x06, 0x00, 0x00, 0x00, 0xca, 0xfd, 0xff, 0xff,
  0x14, 0x00, 0x00, 0x00, 0x00, 0x00, 0x00, 0x05, 0x24, 0x00, 0x00, 0x00,
  0x28, 0x00, 0x00, 0x00, 0x04, 0x00, 0x00, 0x00, 0xc6, 0xfe, 0xff, 0xff,
  0x01, 0x00, 0x00, 0x00, 0x04, 0x00, 0x00, 0x00, 0x01, 0x00, 0x00, 0x00,
  0x04, 0x00, 0x00, 0x00, 0x00, 0x00, 0x00, 0x01, 0x01, 0x00, 0x00, 0x00,
  0x1a, 0x00, 0x00, 0x00, 0x01, 0x00, 0x00, 0x00, 0x19, 0x00, 0x00, 0x00,
  0x0a, 0xfe, 0xff, 0xff, 0x14, 0x00, 0x00, 0x00, 0x00, 0x00, 0x00, 0x34,
  0x10, 0x00, 0x00, 0x00, 0x14, 0x00, 0x00, 0x00, 0x01, 0x00, 0x00, 0x00,
  0x54, 0xdc, 0xff, 0xff, 0x01, 0x00, 0x00, 0x00, 0x19, 0x00, 0x00, 0x00,
  0x02, 0x00, 0x00, 0x00, 0x18, 0x00, 0x00, 0x00, 0x03, 0x00, 0x00, 0x00,
  0xb6, 0xfe, 0xff, 0xff, 0x0c, 0x00, 0x00, 0x00, 0x10, 0x00, 0x00, 0x00,
  0x03, 0x00, 0x00, 0x00, 0x01, 0x00, 0x00, 0x00, 0x18, 0x00, 0x00, 0x00,
  0x02, 0x00, 0x00, 0x00, 0x17, 0x00, 0x00, 0x00, 0x05, 0x00, 0x00, 0x00,
  0x5e, 0xfe, 0xff, 0xff, 0x14, 0x00, 0x00, 0x00, 0x00, 0x00, 0x00, 0x01,
  0x1c, 0x00, 0x00, 0x00, 0x20, 0x00, 0x00, 0x00, 0x02, 0x00, 0x00, 0x00,
  0xac, 0xfe, 0xff, 0xff, 0x00, 0x00, 0x00, 0x01, 0x01, 0x00, 0x00, 0x00,
  0x01, 0x00, 0x00, 0x00, 0x01, 0x00, 0x00, 0x00, 0x17, 0x00, 0x00, 0x00,
  0x03, 0x00, 0x00, 0x00, 0x16, 0x00, 0x00, 0x00, 0x0c, 0x00, 0x00, 0x00,
  0x0b, 0x00, 0x00, 0x00, 0x9e, 0xfe, 0xff, 0xff, 0x14, 0x00, 0x00, 0x00,
  0x00, 0x00, 0x00, 0x34, 0x10, 0x00, 0x00, 0x00, 0x14, 0x00, 0x00, 0x00,
  0x01, 0x00, 0x00, 0x00, 0xe8, 0xdc, 0xff, 0xff, 0x01, 0x00, 0x00, 0x00,
  0x16, 0x00, 0x00, 0x00, 0x02, 0x00, 0x00, 0x00, 0x15, 0x00, 0x00, 0x00,
  0x01, 0x00, 0x00, 0x00, 0x4a, 0xff, 0xff, 0xff, 0x0c, 0x00, 0x00, 0x00,
  0x10, 0x00, 0x00, 0x00, 0x03, 0x00, 0x00, 0x00, 0x01, 0x00, 0x00, 0x00,
  0x15, 0x00, 0x00, 0x00, 0x02, 0x00, 0x00, 0x00, 0x14, 0x00, 0x00, 0x00,
  0x04, 0x00, 0x00, 0x00, 0x00, 0x00, 0x0e, 0x00, 0x1a, 0x00, 0x14, 0x00,
  0x10, 0x00, 0x0c, 0x00, 0x0b, 0x00, 0x04, 0x00, 0x0e, 0x00, 0x00, 0x00,
  0x24, 0x00, 0x00, 0x00, 0x00, 0x00, 0x00, 0x05, 0x34, 0x00, 0x00, 0x00,
  0x38, 0x00, 0x00, 0x00, 0x04, 0x00, 0x00, 0x00, 0x00, 0x00, 0x0e, 0x00,
  0x18, 0x00, 0x17, 0x00, 0x10, 0x00, 0x0c, 0x00, 0x08, 0x00, 0x04, 0x00,
  0x0e, 0x00, 0x00, 0x00, 0x01, 0x00, 0x00, 0x00, 0x04, 0x00, 0x00, 0x00,
  0x01, 0x00, 0x00, 0x00, 0x04, 0x00, 0x00, 0x00, 0x00, 0x00, 0x00, 0x01,
  0x01, 0x00, 0x00, 0x00, 0x14, 0x00, 0x00, 0x00, 0x01, 0x00, 0x00, 0x00,
  0x13, 0x00, 0x00, 0x00, 0x52, 0xff, 0xff, 0xff, 0x14, 0x00, 0x00, 0x00,
  0x00, 0x00, 0x00, 0x34, 0x10, 0x00, 0x00, 0x00, 0x14, 0x00, 0x00, 0x00,
  0x01, 0x00, 0x00, 0x00, 0x9c, 0xdd, 0xff, 0xff, 0x01, 0x00, 0x00, 0x00,
  0x13, 0x00, 0x00, 0x00, 0x02, 0x00, 0x00, 0x00, 0x12, 0x00, 0x00, 0x00,
  0x03, 0x00, 0x00, 0x00, 0x00, 0x00, 0x0a, 0x00, 0x10, 0x00, 0x0c, 0x00,
  0x08, 0x00, 0x04, 0x00, 0x0a, 0x00, 0x00, 0x00, 0x0c, 0x00, 0x00, 0x00,
  0x10, 0x00, 0x00, 0x00, 0x03, 0x00, 0x00, 0x00, 0x01, 0x00, 0x00, 0x00,
  0x12, 0x00, 0x00, 0x00, 0x02, 0x00, 0x00, 0x00, 0x11, 0x00, 0x00, 0x00,
  0x02, 0x00, 0x00, 0x00, 0xb2, 0xff, 0xff, 0xff, 0x20, 0x00, 0x00, 0x00,
  0x00, 0x00, 0x00, 0x01, 0x28, 0x00, 0x00, 0x00, 0x2c, 0x00, 0x00, 0x00,
  0x02, 0x00, 0x00, 0x00, 0x0c, 0x00, 0x10, 0x00, 0x00, 0x00, 0x0c, 0x00,
  0x08, 0x00, 0x07, 0x00, 0x0c, 0x00, 0x00, 0x00, 0x00, 0x00, 0x00, 0x01,
  0x01, 0x00, 0x00, 0x00, 0x01, 0x00, 0x00, 0x00, 0x01, 0x00, 0x00, 0x00,
  0x11, 0x00, 0x00, 0x00, 0x03, 0x00, 0x00, 0x00, 0x10, 0x00, 0x00, 0x00,
  0x0e, 0x00, 0x00, 0x00, 0x0d, 0x00, 0x00, 0x00, 0x00, 0x00, 0x0e, 0x00,
  0x18, 0x00, 0x14, 0x00, 0x10, 0x00, 0x0c, 0x00, 0x0b, 0x00, 0x04, 0x00,
  0x0e, 0x00, 0x00, 0x00, 0x14, 0x00, 0x00, 0x00, 0x00, 0x00, 0x00, 0x34,
  0x10, 0x00, 0x00, 0x00, 0x14, 0x00, 0x00, 0x00, 0x01, 0x00, 0x00, 0x00,
  0x58, 0xde, 0xff, 0xff, 0x01, 0x00, 0x00, 0x00, 0x10, 0x00, 0x00, 0x00,
  0x02, 0x00, 0x00, 0x00, 0x0f, 0x00, 0x00, 0x00, 0x01, 0x00, 0x00, 0x00,
  0x00, 0x00, 0x0a, 0x00, 0x0c, 0x00, 0x00, 0x00, 0x08, 0x00, 0x04, 0x00,
  0x0a, 0x00, 0x00, 0x00, 0x08, 0x00, 0x00, 0x00, 0x0c, 0x00, 0x00, 0x00,
  0x01, 0x00, 0x00, 0x00, 0x0f, 0x00, 0x00, 0x00, 0x01, 0x00, 0x00, 0x00,
  0x00, 0x00, 0x00, 0x00, 0x01, 0x00, 0x00, 0x00, 0x22, 0x00, 0x00, 0x00,
  0x01, 0x00, 0x00, 0x00, 0x00, 0x00, 0x00, 0x00, 0x23, 0x00, 0x00, 0x00,
  0x28, 0x21, 0x00, 0x00, 0xd4, 0x20, 0x00, 0x00, 0x7c, 0x20, 0x00, 0x00,
  0x40, 0x20, 0x00, 0x00, 0x00, 0x20, 0x00, 0x00, 0xc0, 0x1f, 0x00, 0x00,
  0x80, 0x1f, 0x00, 0x00, 0xfc, 0x1e, 0x00, 0x00, 0x7c, 0x1e, 0x00, 0x00,
  0xa8, 0x1c, 0x00, 0x00, 0xc4, 0x1a, 0x00, 0x00, 0xf0, 0x18, 0x00, 0x00,
  0x0c, 0x17, 0x00, 0x00, 0xf8, 0x15, 0x00, 0x00, 0xd4, 0x14, 0x00, 0x00,
  0x5c, 0x14, 0x00, 0x00, 0x9c, 0x13, 0x00, 0x00, 0x78, 0x11, 0x00, 0x00,
  0x88, 0x0f, 0x00, 0x00, 0xd8, 0x0e, 0x00, 0x00, 0x34, 0x0e, 0x00, 0x00,
  0x94, 0x0d, 0x00, 0x00, 0xec, 0x0c, 0x00, 0x00, 0xc8, 0x0a, 0x00, 0x00,
  0xd8, 0x08, 0x00, 0x00, 0x28, 0x08, 0x00, 0x00, 0x84, 0x07, 0x00, 0x00,
  0xe4, 0x06, 0x00, 0x00, 0x3c, 0x06, 0x00, 0x00, 0x18, 0x04, 0x00, 0x00,
  0x28, 0x02, 0x00, 0x00, 0x90, 0x01, 0x00, 0x00, 0xe4, 0x00, 0x00, 0x00,
  0x60, 0x00, 0x00, 0x00, 0x04, 0x00, 0x00, 0x00, 0x7a, 0xdf, 0xff, 0xff,
  0x00, 0x00, 0x00, 0x01, 0x14, 0x00, 0x00, 0x00, 0x1c, 0x00, 0x00, 0x00,
  0x1c, 0x00, 0x00, 0x00, 0x23, 0x00, 0x00, 0x00, 0x34, 0x00, 0x00, 0x00,
  0x02, 0x00, 0x00, 0x00, 0xff, 0xff, 0xff, 0xff, 0x03, 0x00, 0x00, 0x00,
  0x60, 0xdf, 0xff, 0xff, 0x1b, 0x00, 0x00, 0x00, 0x53, 0x74, 0x61, 0x74,
  0x65, 0x66, 0x75, 0x6c, 0x50, 0x61, 0x72, 0x74, 0x69, 0x74, 0x69, 0x6f,
  0x6e, 0x65, 0x64, 0x43, 0x61, 0x6c, 0x6c, 0x5f, 0x31, 0x3a, 0x30, 0x00,
  0x02, 0x00, 0x00, 0x00, 0x01, 0x00, 0x00, 0x00, 0x03, 0x00, 0x00, 0x00,
  0x62, 0xec, 0xff, 0xff, 0x00, 0x00, 0x00, 0x01, 0x18, 0x00, 0x00, 0x00,
  0x20, 0x00, 0x00, 0x00, 0x40, 0x00, 0x00, 0x00, 0x22, 0x00, 0x00, 0x00,
  0x00, 0x00, 0x00, 0x09, 0x58, 0x00, 0x00, 0x00, 0x02, 0x00, 0x00, 0x00,
  0xff, 0xff, 0xff, 0xff, 0x03, 0x00, 0x00, 0x00, 0xdc, 0xe1, 0xff, 0xff,
  0x08, 0x00, 0x00, 0x00, 0x14, 0x00, 0x00, 0x00, 0x01, 0x00, 0x00, 0x00,
  0x80, 0xff, 0xff, 0xff, 0xff, 0xff, 0xff, 0xff, 0x00, 0x00, 0x00, 0x00,
  0x01, 0x00, 0x00, 0x00, 0x00, 0x00, 0x80, 0x3b, 0x1c, 0x00, 0x00, 0x00,
  0x53, 0x74, 0x61, 0x74, 0x65, 0x66, 0x75, 0x6c, 0x50, 0x61, 0x72, 0x74,
  0x69, 0x74, 0x69, 0x6f, 0x6e, 0x65, 0x64, 0x43, 0x61, 0x6c, 0x6c, 0x5f,
  0x31, 0x3a, 0x30, 0x31, 0x00, 0x00, 0x00, 0x00, 0x02, 0x00, 0x00, 0x00,
  0x01, 0x00, 0x00, 0x00, 0x03, 0x00, 0x00, 0x00, 0xe2, 0xec, 0xff, 0xff,
  0x00, 0x00, 0x00, 0x01, 0x18, 0x00, 0x00, 0x00, 0x20, 0x00, 0x00, 0x00,
  0x40, 0x00, 0x00, 0x00, 0x21, 0x00, 0x00, 0x00, 0x00, 0x00, 0x00, 0x09,
  0x80, 0x00, 0x00, 0x00, 0x02, 0x00, 0x00, 0x00, 0xff, 0xff, 0xff, 0xff,
  0x03, 0x00, 0x00, 0x00, 0x5c, 0xe2, 0xff, 0xff, 0x08, 0x00, 0x00, 0x00,
  0x14, 0x00, 0x00, 0x00, 0x01, 0x00, 0x00, 0x00, 0xcd, 0xff, 0xff, 0xff,
  0xff, 0xff, 0xff, 0xff, 0x00, 0x00, 0x00, 0x00, 0x01, 0x00, 0x00, 0x00,
  0x37, 0x0b, 0x08, 0x3d, 0x44, 0x00, 0x00, 0x00, 0x54, 0x69, 0x6e, 0x79,
  0x43, 0x4e, 0x4e, 0x31, 0x44, 0x5f, 0x44, 0x72, 0x6f, 0x6e, 0x65, 0x5f,
  0x31, 0x2f, 0x6f, 0x75, 0x74, 0x70, 0x75, 0x74, 0x5f, 0x31, 0x2f, 0x4d,
  0x61, 0x74, 0x4d, 0x75, 0x6c, 0x3b, 0x54, 0x69, 0x6e, 0x79, 0x43, 0x4e,
  0x4e, 0x31, 0x44, 0x5f, 0x44, 0x72, 0x6f, 0x6e, 0x65, 0x5f, 0x31, 0x2f,
  0x6f, 0x75, 0x74, 0x70, 0x75, 0x74, 0x5f, 0x31, 0x2f, 0x42, 0x69, 0x61,
  0x73, 0x41, 0x64, 0x64, 0x00, 0x00, 0x00, 0x00, 0x02, 0x00, 0x00, 0x00,
  0x01, 0x00, 0x00, 0x00, 0x03, 0x00, 0x00, 0x00, 0x8a, 0xed, 0xff, 0xff,
  0x00, 0x00, 0x00, 0x01, 0x18, 0x00, 0x00, 0x00, 0x20, 0x00, 0x00, 0x00,
  0x40, 0x00, 0x00, 0x00, 0x20, 0x00, 0x00, 0x00, 0x00, 0x00, 0x00, 0x09,
  0x6c, 0x00, 0x00, 0x00, 0x02, 0x00, 0x00, 0x00, 0xff, 0xff, 0xff, 0xff,
  0x20, 0x00, 0x00, 0x00, 0x04, 0xe3, 0xff, 0xff, 0x08, 0x00, 0x00, 0x00,
  0x14, 0x00, 0x00, 0x00, 0x01, 0x00, 0x00, 0x00, 0x80, 0xff, 0xff, 0xff,
  0xff, 0xff, 0xff, 0xff, 0x00, 0x00, 0x00, 0x00, 0x01, 0x00, 0x00, 0x00,
  0xd2, 0x44, 0x07, 0x3c, 0x33, 0x00, 0x00, 0x00, 0x54, 0x69, 0x6e, 0x79,
  0x43, 0x4e, 0x4e, 0x31, 0x44, 0x5f, 0x44, 0x72, 0x6f, 0x6e, 0x65, 0x5f,
  0x31, 0x2f, 0x67, 0x6c, 0x6f, 0x62, 0x61, 0x6c, 0x5f, 0x61, 0x76, 0x65,
  0x72, 0x61, 0x67, 0x65, 0x5f, 0x70, 0x6f, 0x6f, 0x6c, 0x69, 0x6e, 0x67,
  0x31, 0x64, 0x5f, 0x34, 0x5f, 0x31, 0x2f, 0x4d, 0x65, 0x61, 0x6e, 0x00,
  0x02, 0x00, 0x00, 0x00, 0x01, 0x00, 0x00, 0x00, 0x20, 0x00, 0x00, 0x00,
  0x1e, 0xee, 0xff, 0xff, 0x00, 0x00, 0x00, 0x01, 0x18, 0x00, 0x00, 0x00,
  0x24, 0x00, 0x00, 0x00, 0x40, 0x00, 0x00, 0x00, 0x1f, 0x00, 0x00, 0x00,
  0x00, 0x00, 0x00, 0x09, 0xc0, 0x01, 0x00, 0x00, 0x03, 0x00, 0x00, 0x00,
  0xff, 0xff, 0xff, 0xff, 0x03, 0x00, 0x00, 0x00, 0x20, 0x00, 0x00, 0x00,
  0x9c, 0xe3, 0xff, 0xff, 0x08, 0x00, 0x00, 0x00, 0x10, 0x00, 0x00, 0x00,
  0x01, 0x00, 0x00, 0x00, 0x80, 0xff, 0xff, 0xff, 0xff, 0xff, 0xff, 0xff,
  0x01, 0x00, 0x00, 0x00, 0x9e, 0x74, 0x3c, 0x3c, 0x87, 0x01, 0x00, 0x00,
  0x54, 0x69, 0x6e, 0x79, 0x43, 0x4e, 0x4e, 0x31, 0x44, 0x5f, 0x44, 0x72,
  0x6f, 0x6e, 0x65, 0x5f, 0x31, 0x2f, 0x72, 0x65, 0x5f, 0x6c, 0x75, 0x5f,
  0x31, 0x34, 0x5f, 0x31, 0x2f, 0x52, 0x65, 0x6c, 0x75, 0x3b, 0x54, 0x69,
  0x6e, 0x79, 0x43, 0x4e, 0x4e, 0x31, 0x44, 0x5f, 0x44, 0x72, 0x6f, 0x6e,
  0x65, 0x5f, 0x31, 0x2f, 0x62, 0x61, 0x74, 0x63, 0x68, 0x5f, 0x6e, 0x6f,
  0x72, 0x6d, 0x61, 0x6c, 0x69, 0x7a, 0x61, 0x74, 0x69, 0x6f, 0x6e, 0x5f,
  0x31, 0x34, 0x5f, 0x31, 0x2f, 0x62, 0x61, 0x74, 0x63, 0x68, 0x6e, 0x6f,
  0x72, 0x6d, 0x2f, 0x61, 0x64, 0x64, 0x5f, 0x31, 0x3b, 0x54, 0x69, 0x6e,
  0x79, 0x43, 0x4e, 0x4e, 0x31, 0x44, 0x5f, 0x44, 0x72, 0x6f, 0x6e, 0x65,
  0x5f, 0x31, 0x2f, 0x63, 0x6f, 0x6e, 0x76, 0x31, 0x64, 0x5f, 0x31, 0x34,
  0x5f, 0x31, 0x2f, 0x63, 0x6f, 0x6e, 0x76, 0x6f, 0x6c, 0x75, 0x74, 0x69,
  0x6f, 0x6e, 0x2f, 0x53, 0x71, 0x75, 0x65, 0x65, 0x7a, 0x65, 0x3b, 0x54,
  0x69, 0x6e, 0x79, 0x43, 0x4e, 0x4e, 0x31, 0x44, 0x5f, 0x44, 0x72, 0x6f,
  0x6e, 0x65, 0x5f, 0x31, 0x2f, 0x62, 0x61, 0x74, 0x63, 0x68, 0x5f, 0x6e,
  0x6f, 0x72, 0x6d, 0x61, 0x6c, 0x69, 0x7a, 0x61, 0x74, 0x69, 0x6f, 0x6e,
  0x5f, 0x31, 0x34, 0x5f, 0x31, 0x2f, 0x62, 0x61, 0x74, 0x63, 0x68, 0x6e,
  0x6f, 0x72, 0x6d, 0x2f, 0x6d, 0x75, 0x6c, 0x5f, 0x31, 0x3b, 0x54, 0x69,
  0x6e, 0x79, 0x43, 0x4e, 0x4e, 0x31, 0x44, 0x5f, 0x44, 0x72, 0x6f, 0x6e,
  0x65, 0x5f, 0x31, 0x2f, 0x63, 0x6f, 0x6e, 0x76, 0x31, 0x64, 0x5f, 0x31,
  0x34, 0x5f, 0x31, 0x2f, 0x42, 0x69, 0x61, 0x73, 0x41, 0x64, 0x64, 0x3b,
  0x54, 0x69, 0x6e, 0x79, 0x43, 0x4e, 0x4e, 0x31, 0x44, 0x5f, 0x44, 0x72,
  0x6f, 0x6e, 0x65, 0x5f, 0x31, 0x2f, 0x63, 0x6f, 0x6e, 0x76, 0x31, 0x64,
  0x5f, 0x31, 0x34, 0x5f, 0x31, 0x2f, 0x53, 0x71, 0x75, 0x65, 0x65, 0x7a,
  0x65, 0x3b, 0x54, 0x69, 0x6e, 0x79, 0x43, 0x4e, 0x4e, 0x31, 0x44, 0x5f,
  0x44, 0x72, 0x6f, 0x6e, 0x65, 0x5f, 0x31, 0x2f, 0x62, 0x61, 0x74, 0x63,
  0x68, 0x5f, 0x6e, 0x6f, 0x72, 0x6d, 0x61, 0x6c, 0x69, 0x7a, 0x61, 0x74,
  0x69, 0x6f, 0x6e, 0x5f, 0x31, 0x34, 0x5f, 0x31, 0x2f, 0x62, 0x61, 0x74,
  0x63, 0x68, 0x6e, 0x6f, 0x72, 0x6d, 0x2f, 0x6d, 0x75, 0x6c, 0x3b, 0x54,
  0x69, 0x6e, 0x79, 0x43, 0x4e, 0x4e, 0x31, 0x44, 0x5f, 0x44, 0x72, 0x6f,
  0x6e, 0x65, 0x5f, 0x31, 0x2f, 0x62, 0x61, 0x74, 0x63, 0x68, 0x5f, 0x6e,
  0x6f, 0x72, 0x6d, 0x61, 0x6c, 0x69, 0x7a, 0x61, 0x74, 0x69, 0x6f, 0x6e,
  0x5f, 0x31, 0x34, 0x5f, 0x31, 0x2f, 0x62, 0x61, 0x74, 0x63, 0x68, 0x6e,
  0x6f, 0x72, 0x6d, 0x2f, 0x73, 0x75, 0x62, 0x00, 0x03, 0x00, 0x00, 0x00,
  0x01, 0x00, 0x00, 0x00, 0x03, 0x00, 0x00, 0x00, 0x20, 0x00, 0x00, 0x00,
  0x0a, 0xf0, 0xff, 0xff, 0x00, 0x00, 0x00, 0x01, 0x18, 0x00, 0x00, 0x00,
  0x28, 0x00, 0x00, 0x00, 0x44, 0x00, 0x00, 0x00, 0x1e, 0x00, 0x00, 0x00,
  0x00, 0x00, 0x00, 0x09, 0xf0, 0x01, 0x00, 0x00, 0x04, 0x00, 0x00, 0x00,
  0xff, 0xff, 0xff, 0xff, 0x01, 0x00, 0x00, 0x00, 0x03, 0x00, 0x00, 0x00,
  0x20, 0x00, 0x00, 0x00, 0x8c, 0xe5, 0xff, 0xff, 0x08, 0x00, 0x00, 0x00,
  0x10, 0x00, 0x00, 0x00, 0x01, 0x00, 0x00, 0x00, 0x80, 0xff, 0xff, 0xff,
  0xff, 0xff, 0xff, 0xff, 0x01, 0x00, 0x00, 0x00, 0x9e, 0x74, 0x3c, 0x3c,
  0xb1, 0x01, 0x00, 0x00, 0x54, 0x69, 0x6e, 0x79, 0x43, 0x4e, 0x4e, 0x31,
  0x44, 0x5f, 0x44, 0x72, 0x6f, 0x6e, 0x65, 0x5f, 0x31, 0x2f, 0x72, 0x65,
  0x5f, 0x6c, 0x75, 0x5f, 0x31, 0x34, 0x5f, 0x31, 0x2f, 0x52, 0x65, 0x6c,
  0x75, 0x3b, 0x54, 0x69, 0x6e, 0x79, 0x43, 0x4e, 0x4e, 0x31, 0x44, 0x5f,
  0x44, 0x72, 0x6f, 0x6e, 0x65, 0x5f, 0x31, 0x2f, 0x62, 0x61, 0x74, 0x63,
  0x68, 0x5f, 0x6e, 0x6f, 0x72, 0x6d, 0x61, 0x6c, 0x69, 0x7a, 0x61, 0x74,
  0x69, 0x6f, 0x6e, 0x5f, 0x31, 0x34, 0x5f, 0x31, 0x2f, 0x62, 0x61, 0x74,
  0x63, 0x68, 0x6e, 0x6f, 0x72, 0x6d, 0x2f, 0x61, 0x64, 0x64, 0x5f, 0x31,
  0x3b, 0x54, 0x69, 0x6e, 0x79, 0x43, 0x4e, 0x4e, 0x31, 0x44, 0x5f, 0x44,
  0x72, 0x6f, 0x6e, 0x65, 0x5f, 0x31, 0x2f, 0x63, 0x6f, 0x6e, 0x76, 0x31,
  0x64, 0x5f, 0x31, 0x34, 0x5f, 0x31, 0x2f, 0x63, 0x6f, 0x6e, 0x76, 0x6f,
  0x6c, 0x75, 0x74, 0x69, 0x6f, 0x6e, 0x2f, 0x53, 0x71, 0x75, 0x65, 0x65,
  0x7a, 0x65, 0x3b, 0x54, 0x69, 0x6e, 0x79, 0x43, 0x4e, 0x4e, 0x31, 0x44,
  0x5f, 0x44, 0x72, 0x6f, 0x6e, 0x65, 0x5f, 0x31, 0x2f, 0x62, 0x61, 0x74,
  0x63, 0x68, 0x5f, 0x6e, 0x6f, 0x72, 0x6d, 0x61, 0x6c, 0x69, 0x7a, 0x61,
  0x74, 0x69, 0x6f, 0x6e, 0x5f, 0x31, 0x34, 0x5f, 0x31, 0x2f, 0x62, 0x61,
  0x74, 0x63, 0x68, 0x6e, 0x6f, 0x72, 0x6d, 0x2f, 0x6d, 0x75, 0x6c, 0x5f,
  0x31, 0x3b, 0x54, 0x69, 0x6e, 0x79, 0x43, 0x4e, 0x4e, 0x31, 0x44, 0x5f,
  0x44, 0x72, 0x6f, 0x6e, 0x65, 0x5f, 0x31, 0x2f, 0x63, 0x6f, 0x6e, 0x76,
  0x31, 0x64, 0x5f, 0x31, 0x34, 0x5f, 0x31, 0x2f, 0x42, 0x69, 0x61, 0x73,
  0x41, 0x64, 0x64, 0x3b, 0x54, 0x69, 0x6e, 0x79, 0x43, 0x4e, 0x4e, 0x31,
  0x44, 0x5f, 0x44, 0x72, 0x6f, 0x6e, 0x65, 0x5f, 0x31, 0x2f, 0x63, 0x6f,
  0x6e, 0x76, 0x31, 0x64, 0x5f, 0x31, 0x34, 0x5f, 0x31, 0x2f, 0x53, 0x71,
  0x75, 0x65, 0x65, 0x7a, 0x65, 0x3b, 0x54, 0x69, 0x6e, 0x79, 0x43, 0x4e,
  0x4e, 0x31, 0x44, 0x5f, 0x44, 0x72, 0x6f, 0x6e, 0x65, 0x5f, 0x31, 0x2f,
  0x62, 0x61, 0x74, 0x63, 0x68, 0x5f, 0x6e, 0x6f, 0x72, 0x6d, 0x61, 0x6c,
  0x69, 0x7a, 0x61, 0x74, 0x69, 0x6f, 0x6e, 0x5f, 0x31, 0x34, 0x5f, 0x31,
  0x2f, 0x62, 0x61, 0x74, 0x63, 0x68, 0x6e, 0x6f, 0x72, 0x6d, 0x2f, 0x6d,
  0x75, 0x6c, 0x3b, 0x54, 0x69, 0x6e, 0x79, 0x43, 0x4e, 0x4e, 0x31, 0x44,
  0x5f, 0x44, 0x72, 0x6f, 0x6e, 0x65, 0x5f, 0x31, 0x2f, 0x62, 0x61, 0x74,
  0x63, 0x68, 0x5f, 0x6e, 0x6f, 0x72, 0x6d, 0x61, 0x6c, 0x69, 0x7a, 0x61,
  0x74, 0x69, 0x6f, 0x6e, 0x5f, 0x31, 0x34, 0x5f, 0x31, 0x2f, 0x62, 0x61,
  0x74, 0x63, 0x68, 0x6e, 0x6f, 0x72, 0x6d, 0x2f, 0x73, 0x75, 0x62, 0x3b,
  0x54, 0x69, 0x6e, 0x79, 0x43, 0x4e, 0x4e, 0x31, 0x44, 0x5f, 0x44, 0x72,
  0x6f, 0x6e, 0x65, 0x5f, 0x31, 0x2f, 0x63, 0x6f, 0x6e, 0x76, 0x31, 0x64,
  0x5f, 0x31, 0x34, 0x5f, 0x31, 0x2f, 0x63, 0x6f, 0x6e, 0x76, 0x6f, 0x6c,
  0x75, 0x74, 0x69, 0x6f, 0x6e, 0x00, 0x00, 0x00, 0x04, 0x00, 0x00, 0x00,
  0x01, 0x00, 0x00, 0x00, 0x01, 0x00, 0x00, 0x00, 0x03, 0x00, 0x00, 0x00,
  0x20, 0x00, 0x00, 0x00, 0x2a, 0xf2, 0xff, 0xff, 0x00, 0x00, 0x00, 0x01,
  0x18, 0x00, 0x00, 0x00, 0x28, 0x00, 0x00, 0x00, 0x44, 0x00, 0x00, 0x00,
  0x1d, 0x00, 0x00, 0x00, 0x00, 0x00, 0x00, 0x09, 0x74, 0x00, 0x00, 0x00,
  0x04, 0x00, 0x00, 0x00, 0xff, 0xff, 0xff, 0xff, 0x01, 0x00, 0x00, 0x00,
  0x03, 0x00, 0x00, 0x00, 0x20, 0x00, 0x00, 0x00, 0xac, 0xe7, 0xff, 0xff,
  0x08, 0x00, 0x00, 0x00, 0x10, 0x00, 0x00, 0x00, 0x01, 0x00, 0x00, 0x00,
  0x80, 0xff, 0xff, 0xff, 0xff, 0xff, 0xff, 0xff, 0x01, 0x00, 0x00, 0x00,
  0x37, 0xb5, 0x5f, 0x3c, 0x34, 0x00, 0x00, 0x00, 0x54, 0x69, 0x6e, 0x79,
  0x43, 0x4e, 0x4e, 0x31, 0x44, 0x5f, 0x44, 0x72, 0x6f, 0x6e, 0x65, 0x5f,
  0x31, 0x2f, 0x63, 0x6f, 0x6e, 0x76, 0x31, 0x64, 0x5f, 0x31, 0x34, 0x5f,
  0x31, 0x2f, 0x63, 0x6f, 0x6e, 0x76, 0x6f, 0x6c, 0x75, 0x74, 0x69, 0x6f,
  0x6e, 0x2f, 0x45, 0x78, 0x70, 0x61, 0x6e, 0x64, 0x44, 0x69, 0x6d, 0x73,
  0x00, 0x00, 0x00, 0x00, 0x04, 0x00, 0x00, 0x00, 0x01, 0x00, 0x00, 0x00,
  0x01, 0x00, 0x00, 0x00, 0x03, 0x00, 0x00, 0x00, 0x20, 0x00, 0x00, 0x00,
  0xce, 0xf2, 0xff, 0xff, 0x00, 0x00, 0x00, 0x01, 0x18, 0x00, 0x00, 0x00,
  0x24, 0x00, 0x00, 0x00, 0x40, 0x00, 0x00, 0x00, 0x1c, 0x00, 0x00, 0x00,
  0x00, 0x00, 0x00, 0x09, 0x70, 0x00, 0x00, 0x00, 0x03, 0x00, 0x00, 0x00,
  0xff, 0xff, 0xff, 0xff, 0x03, 0x00, 0x00, 0x00, 0x20, 0x00, 0x00, 0x00,
  0x4c, 0xe8, 0xff, 0xff, 0x08, 0x00, 0x00, 0x00, 0x10, 0x00, 0x00, 0x00,
  0x01, 0x00, 0x00, 0x00, 0x80, 0xff, 0xff, 0xff, 0xff, 0xff, 0xff, 0xff,
  0x01, 0x00, 0x00, 0x00, 0x37, 0xb5, 0x5f, 0x3c, 0x35, 0x00, 0x00, 0x00,
  0x54, 0x69, 0x6e, 0x79, 0x43, 0x4e, 0x4e, 0x31, 0x44, 0x5f, 0x44, 0x72,
  0x6f, 0x6e, 0x65, 0x5f, 0x31, 0x2f, 0x6d, 0x61, 0x78, 0x5f, 0x70, 0x6f,
  0x6f, 0x6c, 0x69, 0x6e, 0x67, 0x31, 0x64, 0x5f, 0x39, 0x5f, 0x31, 0x2f,
  0x4d, 0x61, 0x78, 0x50, 0x6f, 0x6f, 0x6c, 0x31, 0x64, 0x2f, 0x53, 0x71,
  0x75, 0x65, 0x65, 0x7a, 0x65, 0x00, 0x00, 0x00, 0x03, 0x00, 0x00, 0x00,
  0x01, 0x00, 0x00, 0x00, 0x03, 0x00, 0x00, 0x00, 0x20, 0x00, 0x00, 0x00,
  0x6a, 0xf3, 0xff, 0xff, 0x00, 0x00, 0x00, 0x01, 0x18, 0x00, 0x00, 0x00,
  0x28, 0x00, 0x00, 0x00, 0x48, 0x00, 0x00, 0x00, 0x1b, 0x00, 0x00, 0x00,
  0x00, 0x00, 0x00, 0x09, 0x70, 0x00, 0x00, 0x00, 0x04, 0x00, 0x00, 0x00,
  0xff, 0xff, 0xff, 0xff, 0x01, 0x00, 0x00, 0x00, 0x03, 0x00, 0x00, 0x00,
  0x20, 0x00, 0x00, 0x00, 0xec, 0xe8, 0xff, 0xff, 0x08, 0x00, 0x00, 0x00,
  0x14, 0x00, 0x00, 0x00, 0x01, 0x00, 0x00, 0x00, 0x80, 0xff, 0xff, 0xff,
  0xff, 0xff, 0xff, 0xff, 0x00, 0x00, 0x00, 0x00, 0x01, 0x00, 0x00, 0x00,
  0x37, 0xb5, 0x5f, 0x3c, 0x2d, 0x00, 0x00, 0x00, 0x54, 0x69, 0x6e, 0x79,
  0x43, 0x4e, 0x4e, 0x31, 0x44, 0x5f, 0x44, 0x72, 0x6f, 0x6e, 0x65, 0x5f,
  0x31, 0x2f, 0x6d, 0x61, 0x78, 0x5f, 0x70, 0x6f, 0x6f, 0x6c, 0x69, 0x6e,
  0x67, 0x31, 0x64, 0x5f, 0x39, 0x5f, 0x31, 0x2f, 0x4d, 0x61, 0x78, 0x50,
  0x6f, 0x6f, 0x6c, 0x31, 0x64, 0x00, 0x00, 0x00, 0x04, 0x00, 0x00, 0x00,
  0x01, 0x00, 0x00, 0x00, 0x01, 0x00, 0x00, 0x00, 0x03, 0x00, 0x00, 0x00,
  0x20, 0x00, 0x00, 0x00, 0x0a, 0xf4, 0xff, 0xff, 0x00, 0x00, 0x00, 0x01,
  0x18, 0x00, 0x00, 0x00, 0x28, 0x00, 0x00, 0x00, 0x48, 0x00, 0x00, 0x00,
  0x1a, 0x00, 0x00, 0x00, 0x00, 0x00, 0x00, 0x09, 0x7c, 0x00, 0x00, 0x00,
  0x04, 0x00, 0x00, 0x00, 0xff, 0xff, 0xff, 0xff, 0x01, 0x00, 0x00, 0x00,
  0x0c, 0x00, 0x00, 0x00, 0x20, 0x00, 0x00, 0x00, 0x8c, 0xe9, 0xff, 0xff,
  0x08, 0x00, 0x00, 0x00, 0x14, 0x00, 0x00, 0x00, 0x01, 0x00, 0x00, 0x00,
  0x80, 0xff, 0xff, 0xff, 0xff, 0xff, 0xff, 0xff, 0x00, 0x00, 0x00, 0x00,
  0x01, 0x00, 0x00, 0x00, 0x37, 0xb5, 0x5f, 0x3c, 0x38, 0x00, 0x00, 0x00,
  0x54, 0x69, 0x6e, 0x79, 0x43, 0x4e, 0x4e, 0x31, 0x44, 0x5f, 0x44, 0x72,
  0x6f, 0x6e, 0x65, 0x5f, 0x31, 0x2f, 0x6d, 0x61, 0x78, 0x5f, 0x70, 0x6f,
  0x6f, 0x6c, 0x69, 0x6e, 0x67, 0x31, 0x64, 0x5f, 0x39, 0x5f, 0x31, 0x2f,
  0x4d, 0x61, 0x78, 0x50, 0x6f, 0x6f, 0x6c, 0x31, 0x64, 0x2f, 0x45, 0x78,
  0x70, 0x61, 0x6e, 0x64, 0x44, 0x69, 0x6d, 0x73, 0x00, 0x00, 0x00, 0x00,
  0x04, 0x00, 0x00, 0x00, 0x01, 0x00, 0x00, 0x00, 0x01, 0x00, 0x00, 0x00,
  0x0c, 0x00, 0x00, 0x00, 0x20, 0x00, 0x00, 0x00, 0xb6, 0xf4, 0xff, 0xff,
  0x00, 0x00, 0x00, 0x01, 0x18, 0x00, 0x00, 0x00, 0x24, 0x00, 0x00, 0x00,
  0x40, 0x00, 0x00, 0x00, 0x19, 0x00, 0x00, 0x00, 0x00, 0x00, 0x00, 0x09,
  0xc0, 0x01, 0x00, 0x00, 0x03, 0x00, 0x00, 0x00, 0xff, 0xff, 0xff, 0xff,
  0x0c, 0x00, 0x00, 0x00, 0x20, 0x00, 0x00, 0x00, 0x34, 0xea, 0xff, 0xff,
  0x08, 0x00, 0x00, 0x00, 0x10, 0x00, 0x00, 0x00, 0x01, 0x00, 0x00, 0x00,
  0x80, 0xff, 0xff, 0xff, 0xff, 0xff, 0xff, 0xff, 0x01, 0x00, 0x00, 0x00,
  0x37, 0xb5, 0x5f, 0x3c, 0x87, 0x01, 0x00, 0x00, 0x54, 0x69, 0x6e, 0x79,
  0x43, 0x4e, 0x4e, 0x31, 0x44, 0x5f, 0x44, 0x72, 0x6f, 0x6e, 0x65, 0x5f,
  0x31, 0x2f, 0x72, 0x65, 0x5f, 0x6c, 0x75, 0x5f, 0x31, 0x33, 0x5f, 0x31,
  0x2f, 0x52, 0x65, 0x6c, 0x75, 0x3b, 0x54, 0x69, 0x6e, 0x79, 0x43, 0x4e,
  0x4e, 0x31, 0x44, 0x5f, 0x44, 0x72, 0x6f, 0x6e, 0x65, 0x5f, 0x31, 0x2f,
  0x62, 0x61, 0x74, 0x63, 0x68, 0x5f, 0x6e, 0x6f, 0x72, 0x6d, 0x61, 0x6c,
  0x69, 0x7a, 0x61, 0x74, 0x69, 0x6f, 0x6e, 0x5f, 0x31, 0x33, 0x5f, 0x31,
  0x2f, 0x62, 0x61, 0x74, 0x63, 0x68, 0x6e, 0x6f, 0x72, 0x6d, 0x2f, 0x61,
  0x64, 0x64, 0x5f, 0x31, 0x3b, 0x54, 0x69, 0x6e, 0x79, 0x43, 0x4e, 0x4e,
  0x31, 0x44, 0x5f, 0x44, 0x72, 0x6f, 0x6e, 0x65, 0x5f, 0x31, 0x2f, 0x63,
  0x6f, 0x6e, 0x76, 0x31, 0x64, 0x5f, 0x31, 0x33, 0x5f, 0x31, 0x2f, 0x63,
  0x6f, 0x6e, 0x76, 0x6f, 0x6c, 0x75, 0x74, 0x69, 0x6f, 0x6e, 0x2f, 0x53,
  0x71, 0x75, 0x65, 0x65, 0x7a, 0x65, 0x3b, 0x54, 0x69, 0x6e, 0x79, 0x43,
  0x4e, 0x4e, 0x31, 0x44, 0x5f, 0x44, 0x72, 0x6f, 0x6e, 0x65, 0x5f, 0x31,
  0x2f, 0x62, 0x61, 0x74, 0x63, 0x68, 0x5f, 0x6e, 0x6f, 0x72, 0x6d, 0x61,
  0x6c, 0x69, 0x7a, 0x61, 0x74, 0x69, 0x6f, 0x6e, 0x5f, 0x31, 0x33, 0x5f,
  0x31, 0x2f, 0x62, 0x61, 0x74, 0x63, 0x68, 0x6e, 0x6f, 0x72, 0x6d, 0x2f,
  0x6d, 0x75, 0x6c, 0x5f, 0x31, 0x3b, 0x54, 0x69, 0x6e, 0x79, 0x43, 0x4e,
  0x4e, 0x31, 0x44, 0x5f, 0x44, 0x72, 0x6f, 0x6e, 0x65, 0x5f, 0x31, 0x2f,
  0x63, 0x6f, 0x6e, 0x76, 0x31, 0x64, 0x5f, 0x31, 0x33, 0x5f, 0x31, 0x2f,
  0x42, 0x69, 0x61, 0x73, 0x41, 0x64, 0x64, 0x3b, 0x54, 0x69, 0x6e, 0x79,
  0x43, 0x4e, 0x4e, 0x31, 0x44, 0x5f, 0x44, 0x72, 0x6f, 0x6e, 0x65, 0x5f,
  0x31, 0x2f, 0x63, 0x6f, 0x6e, 0x76, 0x31, 0x64, 0x5f, 0x31, 0x33, 0x5f,
  0x31, 0x2f, 0x53, 0x71, 0x75, 0x65, 0x65, 0x7a, 0x65, 0x3b, 0x54, 0x69,
  0x6e, 0x79, 0x43, 0x4e, 0x4e, 0x31, 0x44, 0x5f, 0x44, 0x72, 0x6f, 0x6e,
  0x65, 0x5f, 0x31, 0x2f, 0x62, 0x61, 0x74, 0x63, 0x68, 0x5f, 0x6e, 0x6f,
  0x72, 0x6d, 0x61, 0x6c, 0x69, 0x7a, 0x61, 0x74, 0x69, 0x6f, 0x6e, 0x5f,
  0x31, 0x33, 0x5f, 0x31, 0x2f, 0x62, 0x61, 0x74, 0x63, 0x68, 0x6e, 0x6f,
  0x72, 0x6d, 0x2f, 0x6d, 0x75, 0x6c, 0x3b, 0x54, 0x69, 0x6e, 0x79, 0x43,
  0x4e, 0x4e, 0x31, 0x44, 0x5f, 0x44, 0x72, 0x6f, 0x6e, 0x65, 0x5f, 0x31,
  0x2f, 0x62, 0x61, 0x74, 0x63, 0x68, 0x5f, 0x6e, 0x6f, 0x72, 0x6d, 0x61,
  0x6c, 0x69, 0x7a, 0x61, 0x74, 0x69, 0x6f, 0x6e, 0x5f, 0x31, 0x33, 0x5f,
  0x31, 0x2f, 0x62, 0x61, 0x74, 0x63, 0x68, 0x6e, 0x6f, 0x72, 0x6d, 0x2f,
  0x73, 0x75, 0x62, 0x00, 0x03, 0x00, 0x00, 0x00, 0x01, 0x00, 0x00, 0x00,
  0x0c, 0x00, 0x00, 0x00, 0x20, 0x00, 0x00, 0x00, 0xa2, 0xf6, 0xff, 0xff,
  0x00, 0x00, 0x00, 0x01, 0x18, 0x00, 0x00, 0x00, 0x28, 0x00, 0x00, 0x00,
  0x44, 0x00, 0x00, 0x00, 0x18, 0x00, 0x00, 0x00, 0x00, 0x00, 0x00, 0x09,
  0xf0, 0x01, 0x00, 0x00, 0x04, 0x00, 0x00, 0x00, 0xff, 0xff, 0xff, 0xff,
  0x01, 0x00, 0x00, 0x00, 0x0c, 0x00, 0x00, 0x00, 0x20, 0x00, 0x00, 0x00,
  0x24, 0xec, 0xff, 0xff, 0x08, 0x00, 0x00, 0x00, 0x10, 0x00, 0x00, 0x00,
  0x01, 0x00, 0x00, 0x00, 0x80, 0xff, 0xff, 0xff, 0xff, 0xff, 0xff, 0xff,
  0x01, 0x00, 0x00, 0x00, 0x37, 0xb5, 0x5f, 0x3c, 0xb1, 0x01, 0x00, 0x00,
  0x54, 0x69, 0x6e, 0x79, 0x43, 0x4e, 0x4e, 0x31, 0x44, 0x5f, 0x44, 0x72,
  0x6f, 0x6e, 0x65, 0x5f, 0x31, 0x2f, 0x72, 0x65, 0x5f, 0x6c, 0x75, 0x5f,
  0x31, 0x33, 0x5f, 0x31, 0x2f, 0x52, 0x65, 0x6c, 0x75, 0x3b, 0x54, 0x69,
  0x6e, 0x79, 0x43, 0x4e, 0x4e, 0x31, 0x44, 0x5f, 0x44, 0x72, 0x6f, 0x6e,
  0x65, 0x5f, 0x31, 0x2f, 0x62, 0x61, 0x74, 0x63, 0x68, 0x5f, 0x6e, 0x6f,
  0x72, 0x6d, 0x61, 0x6c, 0x69, 0x7a, 0x61, 0x74, 0x69, 0x6f, 0x6e, 0x5f,
  0x31, 0x33, 0x5f, 0x31, 0x2f, 0x62, 0x61, 0x74, 0x63, 0x68, 0x6e, 0x6f,
  0x72, 0x6d, 0x2f, 0x61, 0x64, 0x64, 0x5f, 0x31, 0x3b, 0x54, 0x69, 0x6e,
  0x79, 0x43, 0x4e, 0x4e, 0x31, 0x44, 0x5f, 0x44, 0x72, 0x6f, 0x6e, 0x65,
  0x5f, 0x31, 0x2f, 0x63, 0x6f, 0x6e, 0x76, 0x31, 0x64, 0x5f, 0x31, 0x33,
  0x5f, 0x31, 0x2f, 0x63, 0x6f, 0x6e, 0x76, 0x6f, 0x6c, 0x75, 0x74, 0x69,
  0x6f, 0x6e, 0x2f, 0x53, 0x71, 0x75, 0x65, 0x65, 0x7a, 0x65, 0x3b, 0x54,
  0x69, 0x6e, 0x79, 0x43, 0x4e, 0x4e, 0x31, 0x44, 0x5f, 0x44, 0x72, 0x6f,
  0x6e, 0x65, 0x5f, 0x31, 0x2f, 0x62, 0x61, 0x74, 0x63, 0x68, 0x5f, 0x6e,
  0x6f, 0x72, 0x6d, 0x61, 0x6c, 0x69, 0x7a, 0x61, 0x74, 0x69, 0x6f, 0x6e,
  0x5f, 0x31, 0x33, 0x5f, 0x31, 0x2f, 0x62, 0x61, 0x74, 0x63, 0x68, 0x6e,
  0x6f, 0x72, 0x6d, 0x2f, 0x6d, 0x75, 0x6c, 0x5f, 0x31, 0x3b, 0x54, 0x69,
  0x6e, 0x79, 0x43, 0x4e, 0x4e, 0x31, 0x44, 0x5f, 0x44, 0x72, 0x6f, 0x6e,
  0x65, 0x5f, 0x31, 0x2f, 0x63, 0x6f, 0x6e, 0x76, 0x31, 0x64, 0x5f, 0x31,
  0x33, 0x5f, 0x31, 0x2f, 0x42, 0x69, 0x61, 0x73, 0x41, 0x64, 0x64, 0x3b,
  0x54, 0x69, 0x6e, 0x79, 0x43, 0x4e, 0x4e, 0x31, 0x44, 0x5f, 0x44, 0x72,
  0x6f, 0x6e, 0x65, 0x5f, 0x31, 0x2f, 0x63, 0x6f, 0x6e, 0x76, 0x31, 0x64,
  0x5f, 0x31, 0x33, 0x5f, 0x31, 0x2f, 0x53, 0x71, 0x75, 0x65, 0x65, 0x7a,
  0x65, 0x3b, 0x54, 0x69, 0x6e, 0x79, 0x43, 0x4e, 0x4e, 0x31, 0x44, 0x5f,
  0x44, 0x72, 0x6f, 0x6e, 0x65, 0x5f, 0x31, 0x2f, 0x62, 0x61, 0x74, 0x63,
  0x68, 0x5f, 0x6e, 0x6f, 0x72, 0x6d, 0x61, 0x6c, 0x69, 0x7a, 0x61, 0x74,
  0x69, 0x6f, 0x6e, 0x5f, 0x31, 0x33, 0x5f, 0x31, 0x2f, 0x62, 0x61, 0x74,
  0x63, 0x68, 0x6e, 0x6f, 0x72, 0x6d, 0x2f, 0x6d, 0x75, 0x6c, 0x3b, 0x54,
  0x69, 0x6e, 0x79, 0x43, 0x4e, 0x4e, 0x31, 0x44, 0x5f, 0x44, 0x72, 0x6f,
  0x6e, 0x65, 0x5f, 0x31, 0x2f, 0x62, 0x61, 0x74, 0x63, 0x68, 0x5f, 0x6e,
  0x6f, 0x72, 0x6d, 0x61, 0x6c, 0x69, 0x7a, 0x61, 0x74, 0x69, 0x6f, 0x6e,
  0x5f, 0x31, 0x33, 0x5f, 0x31, 0x2f, 0x62, 0x61, 0x74, 0x63, 0x68, 0x6e,
  0x6f, 0x72, 0x6d, 0x2f, 0x73, 0x75, 0x62, 0x3b, 0x54, 0x69, 0x6e, 0x79,
  0x43, 0x4e, 0x4e, 0x31, 0x44, 0x5f, 0x44, 0x72, 0x6f, 0x6e, 0x65, 0x5f,
  0x31, 0x2f, 0x63, 0x6f, 0x6e, 0x76, 0x31, 0x64, 0x5f, 0x31, 0x33, 0x5f,
  0x31, 0x2f, 0x63, 0x6f, 0x6e, 0x76, 0x6f, 0x6c, 0x75, 0x74, 0x69, 0x6f,
  0x6e, 0x00, 0x00, 0x00, 0x04, 0x00, 0x00, 0x00, 0x01, 0x00, 0x00, 0x00,
  0x01, 0x00, 0x00, 0x00, 0x0c, 0x00, 0x00, 0x00, 0x20, 0x00, 0x00, 0x00,
  0xc2, 0xf8, 0xff, 0xff, 0x00, 0x00, 0x00, 0x01, 0x18, 0x00, 0x00, 0x00,
  0x28, 0x00, 0x00, 0x00, 0x44, 0x00, 0x00, 0x00, 0x17, 0x00, 0x00, 0x00,
  0x00, 0x00, 0x00, 0x09, 0x74, 0x00, 0x00, 0x00, 0x04, 0x00, 0x00, 0x00,
  0xff, 0xff, 0xff, 0xff, 0x01, 0x00, 0x00, 0x00, 0x0c, 0x00, 0x00, 0x00,
  0x10, 0x00, 0x00, 0x00, 0x44, 0xee, 0xff, 0xff, 0x08, 0x00, 0x00, 0x00,
  0x10, 0x00, 0x00, 0x00, 0x01, 0x00, 0x00, 0x00, 0x80, 0xff, 0xff, 0xff,
  0xff, 0xff, 0xff, 0xff, 0x01, 0x00, 0x00, 0x00, 0x69, 0xd7, 0x84, 0x3c,
  0x34, 0x00, 0x00, 0x00, 0x54, 0x69, 0x6e, 0x79, 0x43, 0x4e, 0x4e, 0x31,
  0x44, 0x5f, 0x44, 0x72, 0x6f, 0x6e, 0x65, 0x5f, 0x31, 0x2f, 0x63, 0x6f,
  0x6e, 0x76, 0x31, 0x64, 0x5f, 0x31, 0x33, 0x5f, 0x31, 0x2f, 0x63, 0x6f,
  0x6e, 0x76, 0x6f, 0x6c, 0x75, 0x74, 0x69, 0x6f, 0x6e, 0x2f, 0x45, 0x78,
  0x70, 0x61, 0x6e, 0x64, 0x44, 0x69, 0x6d, 0x73, 0x00, 0x00, 0x00, 0x00,
  0x04, 0x00, 0x00, 0x00, 0x01, 0x00, 0x00, 0x00, 0x01, 0x00, 0x00, 0x00,
  0x0c, 0x00, 0x00, 0x00, 0x10, 0x00, 0x00, 0x00, 0x66, 0xf9, 0xff, 0xff,
  0x00, 0x00, 0x00, 0x01, 0x18, 0x00, 0x00, 0x00, 0x24, 0x00, 0x00, 0x00,
  0x40, 0x00, 0x00, 0x00, 0x16, 0x00, 0x00, 0x00, 0x00, 0x00, 0x00, 0x09,
  0x70, 0x00, 0x00, 0x00, 0x03, 0x00, 0x00, 0x00, 0xff, 0xff, 0xff, 0xff,
  0x0c, 0x00, 0x00, 0x00, 0x10, 0x00, 0x00, 0x00, 0xe4, 0xee, 0xff, 0xff,
  0x08, 0x00, 0x00, 0x00, 0x10, 0x00, 0x00, 0x00, 0x01, 0x00, 0x00, 0x00,
  0x80, 0xff, 0xff, 0xff, 0xff, 0xff, 0xff, 0xff, 0x01, 0x00, 0x00, 0x00,
  0x69, 0xd7, 0x84, 0x3c, 0x35, 0x00, 0x00, 0x00, 0x54, 0x69, 0x6e, 0x79,
  0x43, 0x4e, 0x4e, 0x31, 0x44, 0x5f, 0x44, 0x72, 0x6f, 0x6e, 0x65, 0x5f,
  0x31, 0x2f, 0x6d, 0x61, 0x78, 0x5f, 0x70, 0x6f, 0x6f, 0x6c, 0x69, 0x6e,
  0x67, 0x31, 0x64, 0x5f, 0x38, 0x5f, 0x31, 0x2f, 0x4d, 0x61, 0x78, 0x50,
  0x6f, 0x6f, 0x6c, 0x31, 0x64, 0x2f, 0x53, 0x71, 0x75, 0x65, 0x65, 0x7a,
  0x65, 0x00, 0x00, 0x00, 0x03, 0x00, 0x00, 0x00, 0x01, 0x00, 0x00, 0x00,
  0x0c, 0x00, 0x00, 0x00, 0x10, 0x00, 0x00, 0x00, 0x02, 0xfa, 0xff, 0xff,
  0x00, 0x00, 0x00, 0x01, 0x18, 0x00, 0x00, 0x00, 0x28, 0x00, 0x00, 0x00,
  0x48, 0x00, 0x00, 0x00, 0x15, 0x00, 0x00, 0x00, 0x00, 0x00, 0x00, 0x09,
  0x70, 0x00, 0x00, 0x00, 0x04, 0x00, 0x00, 0x00, 0xff, 0xff, 0xff, 0xff,
  0x01, 0x00, 0x00, 0x00, 0x0c, 0x00, 0x00, 0x00, 0x10, 0x00, 0x00, 0x00,
  0x84, 0xef, 0xff, 0xff, 0x08, 0x00, 0x00, 0x00, 0x14, 0x00, 0x00, 0x00,
  0x01, 0x00, 0x00, 0x00, 0x80, 0xff, 0xff, 0xff, 0xff, 0xff, 0xff, 0xff,
  0x00, 0x00, 0x00, 0x00, 0x01, 0x00, 0x00, 0x00, 0x69, 0xd7, 0x84, 0x3c,
  0x2d, 0x00, 0x00, 0x00, 0x54, 0x69, 0x6e, 0x79, 0x43, 0x4e, 0x4e, 0x31,
  0x44, 0x5f, 0x44, 0x72, 0x6f, 0x6e, 0x65, 0x5f, 0x31, 0x2f, 0x6d, 0x61,
  0x78, 0x5f, 0x70, 0x6f, 0x6f, 0x6c, 0x69, 0x6e, 0x67, 0x31, 0x64, 0x5f,
  0x38, 0x5f, 0x31, 0x2f, 0x4d, 0x61, 0x78, 0x50, 0x6f, 0x6f, 0x6c, 0x31,
  0x64, 0x00, 0x00, 0x00, 0x04, 0x00, 0x00, 0x00, 0x01, 0x00, 0x00, 0x00,
  0x01, 0x00, 0x00, 0x00, 0x0c, 0x00, 0x00, 0x00, 0x10, 0x00, 0x00, 0x00,
  0xa2, 0xfa, 0xff, 0xff, 0x00, 0x00, 0x00, 0x01, 0x18, 0x00, 0x00, 0x00,
  0x28, 0x00, 0x00, 0x00, 0x48, 0x00, 0x00, 0x00, 0x14, 0x00, 0x00, 0x00,
  0x00, 0x00, 0x00, 0x09, 0x7c, 0x00, 0x00, 0x00, 0x04, 0x00, 0x00, 0x00,
  0xff, 0xff, 0xff, 0xff, 0x01, 0x00, 0x00, 0x00, 0x32, 0x00, 0x00, 0x00,
  0x10, 0x00, 0x00, 0x00, 0x24, 0xf0, 0xff, 0xff, 0x08, 0x00, 0x00, 0x00,
  0x14, 0x00, 0x00, 0x00, 0x01, 0x00, 0x00, 0x00, 0x80, 0xff, 0xff, 0xff,
  0xff, 0xff, 0xff, 0xff, 0x00, 0x00, 0x00, 0x00, 0x01, 0x00, 0x00, 0x00,
  0x69, 0xd7, 0x84, 0x3c, 0x38, 0x00, 0x00, 0x00, 0x54, 0x69, 0x6e, 0x79,
  0x43, 0x4e, 0x4e, 0x31, 0x44, 0x5f, 0x44, 0x72, 0x6f, 0x6e, 0x65, 0x5f,
  0x31, 0x2f, 0x6d, 0x61, 0x78, 0x5f, 0x70, 0x6f, 0x6f, 0x6c, 0x69, 0x6e,
  0x67, 0x31, 0x64, 0x5f, 0x38, 0x5f, 0x31, 0x2f, 0x4d, 0x61, 0x78, 0x50,
  0x6f, 0x6f, 0x6c, 0x31, 0x64, 0x2f, 0x45, 0x78, 0x70, 0x61, 0x6e, 0x64,
  0x44, 0x69, 0x6d, 0x73, 0x00, 0x00, 0x00, 0x00, 0x04, 0x00, 0x00, 0x00,
  0x01, 0x00, 0x00, 0x00, 0x01, 0x00, 0x00, 0x00, 0x32, 0x00, 0x00, 0x00,
  0x10, 0x00, 0x00, 0x00, 0x4e, 0xfb, 0xff, 0xff, 0x00, 0x00, 0x00, 0x01,
  0x18, 0x00, 0x00, 0x00, 0x24, 0x00, 0x00, 0x00, 0x40, 0x00, 0x00, 0x00,
  0x13, 0x00, 0x00, 0x00, 0x00, 0x00, 0x00, 0x09, 0xc0, 0x01, 0x00, 0x00,
  0x03, 0x00, 0x00, 0x00, 0xff, 0xff, 0xff, 0xff, 0x32, 0x00, 0x00, 0x00,
  0x10, 0x00, 0x00, 0x00, 0xcc, 0xf0, 0xff, 0xff, 0x08, 0x00, 0x00, 0x00,
  0x10, 0x00, 0x00, 0x00, 0x01, 0x00, 0x00, 0x00, 0x80, 0xff, 0xff, 0xff,
  0xff, 0xff, 0xff, 0xff, 0x01, 0x00, 0x00, 0x00, 0x69, 0xd7, 0x84, 0x3c,
  0x87, 0x01, 0x00, 0x00, 0x54, 0x69, 0x6e, 0x79, 0x43, 0x4e, 0x4e, 0x31,
  0x44, 0x5f, 0x44, 0x72, 0x6f, 0x6e, 0x65, 0x5f, 0x31, 0x2f, 0x72, 0x65,
  0x5f, 0x6c, 0x75, 0x5f, 0x31, 0x32, 0x5f, 0x31, 0x2f, 0x52, 0x65, 0x6c,
  0x75, 0x3b, 0x54, 0x69, 0x6e, 0x79, 0x43, 0x4e, 0x4e, 0x31, 0x44, 0x5f,
  0x44, 0x72, 0x6f, 0x6e, 0x65, 0x5f, 0x31, 0x2f, 0x62, 0x61, 0x74, 0x63,
  0x68, 0x5f, 0x6e, 0x6f, 0x72, 0x6d, 0x61, 0x6c, 0x69, 0x7a, 0x61, 0x74,
  0x69, 0x6f, 0x6e, 0x5f, 0x31, 0x32, 0x5f, 0x31, 0x2f, 0x62, 0x61, 0x74,
  0x63, 0x68, 0x6e, 0x6f, 0x72, 0x6d, 0x2f, 0x61, 0x64, 0x64, 0x5f, 0x31,
  0x3b, 0x54, 0x69, 0x6e, 0x79, 0x43, 0x4e, 0x4e, 0x31, 0x44, 0x5f, 0x44,
  0x72, 0x6f, 0x6e, 0x65, 0x5f, 0x31, 0x2f, 0x63, 0x6f, 0x6e, 0x76, 0x31,
  0x64, 0x5f, 0x31, 0x32, 0x5f, 0x31, 0x2f, 0x63, 0x6f, 0x6e, 0x76, 0x6f,
  0x6c, 0x75, 0x74, 0x69, 0x6f, 0x6e, 0x2f, 0x53, 0x71, 0x75, 0x65, 0x65,
  0x7a, 0x65, 0x3b, 0x54, 0x69, 0x6e, 0x79, 0x43, 0x4e, 0x4e, 0x31, 0x44,
  0x5f, 0x44, 0x72, 0x6f, 0x6e, 0x65, 0x5f, 0x31, 0x2f, 0x62, 0x61, 0x74,
  0x63, 0x68, 0x5f, 0x6e, 0x6f, 0x72, 0x6d, 0x61, 0x6c, 0x69, 0x7a, 0x61,
  0x74, 0x69, 0x6f, 0x6e, 0x5f, 0x31, 0x32, 0x5f, 0x31, 0x2f, 0x62, 0x61,
  0x74, 0x63, 0x68, 0x6e, 0x6f, 0x72, 0x6d, 0x2f, 0x6d, 0x75, 0x6c, 0x5f,
  0x31, 0x3b, 0x54, 0x69, 0x6e, 0x79, 0x43, 0x4e, 0x4e, 0x31, 0x44, 0x5f,
  0x44, 0x72, 0x6f, 0x6e, 0x65, 0x5f, 0x31, 0x2f, 0x63, 0x6f, 0x6e, 0x76,
  0x31, 0x64, 0x5f, 0x31, 0x32, 0x5f, 0x31, 0x2f, 0x42, 0x69, 0x61, 0x73,
  0x41, 0x64, 0x64, 0x3b, 0x54, 0x69, 0x6e, 0x79, 0x43, 0x4e, 0x4e, 0x31,
  0x44, 0x5f, 0x44, 0x72, 0x6f, 0x6e, 0x65, 0x5f, 0x31, 0x2f, 0x63, 0x6f,
  0x6e, 0x76, 0x31, 0x64, 0x5f, 0x31, 0x32, 0x5f, 0x31, 0x2f, 0x53, 0x71,
  0x75, 0x65, 0x65, 0x7a, 0x65, 0x3b, 0x54, 0x69, 0x6e, 0x79, 0x43, 0x4e,
  0x4e, 0x31, 0x44, 0x5f, 0x44, 0x72, 0x6f, 0x6e, 0x65, 0x5f, 0x31, 0x2f,
  0x62, 0x61, 0x74, 0x63, 0x68, 0x5f, 0x6e, 0x6f, 0x72, 0x6d, 0x61, 0x6c,
  0x69, 0x7a, 0x61, 0x74, 0x69, 0x6f, 0x6e, 0x5f, 0x31, 0x32, 0x5f, 0x31,
  0x2f, 0x62, 0x61, 0x74, 0x63, 0x68, 0x6e, 0x6f, 0x72, 0x6d, 0x2f, 0x6d,
  0x75, 0x6c, 0x3b, 0x54, 0x69, 0x6e, 0x79, 0x43, 0x4e, 0x4e, 0x31, 0x44,
  0x5f, 0x44, 0x72, 0x6f, 0x6e, 0x65, 0x5f, 0x31, 0x2f, 0x62, 0x61, 0x74,
  0x63, 0x68, 0x5f, 0x6e, 0x6f, 0x72, 0x6d, 0x61, 0x6c, 0x69, 0x7a, 0x61,
  0x74, 0x69, 0x6f, 0x6e, 0x5f, 0x31, 0x32, 0x5f, 0x31, 0x2f, 0x62, 0x61,
  0x74, 0x63, 0x68, 0x6e, 0x6f, 0x72, 0x6d, 0x2f, 0x73, 0x75, 0x62, 0x00,
  0x03, 0x00, 0x00, 0x00, 0x01, 0x00, 0x00, 0x00, 0x32, 0x00, 0x00, 0x00,
  0x10, 0x00, 0x00, 0x00, 0x3a, 0xfd, 0xff, 0xff, 0x00, 0x00, 0x00, 0x01,
  0x18, 0x00, 0x00, 0x00, 0x28, 0x00, 0x00, 0x00, 0x44, 0x00, 0x00, 0x00,
  0x12, 0x00, 0x00, 0x00, 0x00, 0x00, 0x00, 0x09, 0xf0, 0x01, 0x00, 0x00,
  0x04, 0x00, 0x00, 0x00, 0xff, 0xff, 0xff, 0xff, 0x01, 0x00, 0x00, 0x00,
  0x32, 0x00, 0x00, 0x00, 0x10, 0x00, 0x00, 0x00, 0xbc, 0xf2, 0xff, 0xff,
  0x08, 0x00, 0x00, 0x00, 0x10, 0x00, 0x00, 0x00, 0x01, 0x00, 0x00, 0x00,
  0x80, 0xff, 0xff, 0xff, 0xff, 0xff, 0xff, 0xff, 0x01, 0x00, 0x00, 0x00,
  0x69, 0xd7, 0x84, 0x3c, 0xb1, 0x01, 0x00, 0x00, 0x54, 0x69, 0x6e, 0x79,
  0x43, 0x4e, 0x4e, 0x31, 0x44, 0x5f, 0x44, 0x72, 0x6f, 0x6e, 0x65, 0x5f,
  0x31, 0x2f, 0x72, 0x65, 0x5f, 0x6c, 0x75, 0x5f, 0x31, 0x32, 0x5f, 0x31,
  0x2f, 0x52, 0x65, 0x6c, 0x75, 0x3b, 0x54, 0x69, 0x6e, 0x79, 0x43, 0x4e,
  0x4e, 0x31, 0x44, 0x5f, 0x44, 0x72, 0x6f, 0x6e, 0x65, 0x5f, 0x31, 0x2f,
  0x62, 0x61, 0x74, 0x63, 0x68, 0x5f, 0x6e, 0x6f, 0x72, 0x6d, 0x61, 0x6c,
  0x69, 0x7a, 0x61, 0x74, 0x69, 0x6f, 0x6e, 0x5f, 0x31, 0x32, 0x5f, 0x31,
  0x2f, 0x62, 0x61, 0x74, 0x63, 0x68, 0x6e, 0x6f, 0x72, 0x6d, 0x2f, 0x61,
  0x64, 0x64, 0x5f, 0x31, 0x3b, 0x54, 0x69, 0x6e, 0x79, 0x43, 0x4e, 0x4e,
  0x31, 0x44, 0x5f, 0x44, 0x72, 0x6f, 0x6e, 0x65, 0x5f, 0x31, 0x2f, 0x63,
  0x6f, 0x6e, 0x76, 0x31, 0x64, 0x5f, 0x31, 0x32, 0x5f, 0x31, 0x2f, 0x63,
  0x6f, 0x6e, 0x76, 0x6f, 0x6c, 0x75, 0x74, 0x69, 0x6f, 0x6e, 0x2f, 0x53,
  0x71, 0x75, 0x65, 0x65, 0x7a, 0x65, 0x3b, 0x54, 0x69, 0x6e, 0x79, 0x43,
  0x4e, 0x4e, 0x31, 0x44, 0x5f, 0x44, 0x72, 0x6f, 0x6e, 0x65, 0x5f, 0x31,
  0x2f, 0x62, 0x61, 0x74, 0x63, 0x68, 0x5f, 0x6e, 0x6f, 0x72, 0x6d, 0x61,
  0x6c, 0x69, 0x7a, 0x61, 0x74, 0x69, 0x6f, 0x6e, 0x5f, 0x31, 0x32, 0x5f,
  0x31, 0x2f, 0x62, 0x61, 0x74, 0x63, 0x68, 0x6e, 0x6f, 0x72, 0x6d, 0x2f,
  0x6d, 0x75, 0x6c, 0x5f, 0x31, 0x3b, 0x54, 0x69, 0x6e, 0x79, 0x43, 0x4e,
  0x4e, 0x31, 0x44, 0x5f, 0x44, 0x72, 0x6f, 0x6e, 0x65, 0x5f, 0x31, 0x2f,
  0x63, 0x6f, 0x6e, 0x76, 0x31, 0x64, 0x5f, 0x31, 0x32, 0x5f, 0x31, 0x2f,
  0x42, 0x69, 0x61, 0x73, 0x41, 0x64, 0x64, 0x3b, 0x54, 0x69, 0x6e, 0x79,
  0x43, 0x4e, 0x4e, 0x31, 0x44, 0x5f, 0x44, 0x72, 0x6f, 0x6e, 0x65, 0x5f,
  0x31, 0x2f, 0x63, 0x6f, 0x6e, 0x76, 0x31, 0x64, 0x5f, 0x31, 0x32, 0x5f,
  0x31, 0x2f, 0x53, 0x71, 0x75, 0x65, 0x65, 0x7a, 0x65, 0x3b, 0x54, 0x69,
  0x6e, 0x79, 0x43, 0x4e, 0x4e, 0x31, 0x44, 0x5f, 0x44, 0x72, 0x6f, 0x6e,
  0x65, 0x5f, 0x31, 0x2f, 0x62, 0x61, 0x74, 0x63, 0x68, 0x5f, 0x6e, 0x6f,
  0x72, 0x6d, 0x61, 0x6c, 0x69, 0x7a, 0x61, 0x74, 0x69, 0x6f, 0x6e, 0x5f,
  0x31, 0x32, 0x5f, 0x31, 0x2f, 0x62, 0x61, 0x74, 0x63, 0x68, 0x6e, 0x6f,
  0x72, 0x6d, 0x2f, 0x6d, 0x75, 0x6c, 0x3b, 0x54, 0x69, 0x6e, 0x79, 0x43,
  0x4e, 0x4e, 0x31, 0x44, 0x5f, 0x44, 0x72, 0x6f, 0x6e, 0x65, 0x5f, 0x31,
  0x2f, 0x62, 0x61, 0x74, 0x63, 0x68, 0x5f, 0x6e, 0x6f, 0x72, 0x6d, 0x61,
  0x6c, 0x69, 0x7a, 0x61, 0x74, 0x69, 0x6f, 0x6e, 0x5f, 0x31, 0x32, 0x5f,
  0x31, 0x2f, 0x62, 0x61, 0x74, 0x63, 0x68, 0x6e, 0x6f, 0x72, 0x6d, 0x2f,
  0x73, 0x75, 0x62, 0x3b, 0x54, 0x69, 0x6e, 0x79, 0x43, 0x4e, 0x4e, 0x31,
  0x44, 0x5f, 0x44, 0x72, 0x6f, 0x6e, 0x65, 0x5f, 0x31, 0x2f, 0x63, 0x6f,
  0x6e, 0x76, 0x31, 0x64, 0x5f, 0x31, 0x32, 0x5f, 0x31, 0x2f, 0x63, 0x6f,
  0x6e, 0x76, 0x6f, 0x6c, 0x75, 0x74, 0x69, 0x6f, 0x6e, 0x00, 0x00, 0x00,
  0x04, 0x00, 0x00, 0x00, 0x01, 0x00, 0x00, 0x00, 0x01, 0x00, 0x00, 0x00,
  0x32, 0x00, 0x00, 0x00, 0x10, 0x00, 0x00, 0x00, 0x5a, 0xff, 0xff, 0xff,
  0x00, 0x00, 0x00, 0x01, 0x18, 0x00, 0x00, 0x00, 0x28, 0x00, 0x00, 0x00,
  0x44, 0x00, 0x00, 0x00, 0x11, 0x00, 0x00, 0x00, 0x00, 0x00, 0x00, 0x09,
  0x74, 0x00, 0x00, 0x00, 0x04, 0x00, 0x00, 0x00, 0xff, 0xff, 0xff, 0xff,
  0x01, 0x00, 0x00, 0x00, 0x32, 0x00, 0x00, 0x00, 0x03, 0x00, 0x00, 0x00,
  0xdc, 0xf4, 0xff, 0xff, 0x08, 0x00, 0x00, 0x00, 0x10, 0x00, 0x00, 0x00,
  0x01, 0x00, 0x00, 0x00, 0x06, 0x00, 0x00, 0x00, 0x00, 0x00, 0x00, 0x00,
  0x01, 0x00, 0x00, 0x00, 0x3c, 0x0e, 0xf8, 0x3c, 0x34, 0x00, 0x00, 0x00,
  0x54, 0x69, 0x6e, 0x79, 0x43, 0x4e, 0x4e, 0x31, 0x44, 0x5f, 0x44, 0x72,
  0x6f, 0x6e, 0x65, 0x5f, 0x31, 0x2f, 0x63, 0x6f, 0x6e, 0x76, 0x31, 0x64,
  0x5f, 0x31, 0x32, 0x5f, 0x31, 0x2f, 0x63, 0x6f, 0x6e, 0x76, 0x6f, 0x6c,
  0x75, 0x74, 0x69, 0x6f, 0x6e, 0x2f, 0x45, 0x78, 0x70, 0x61, 0x6e, 0x64,
  0x44, 0x69, 0x6d, 0x73, 0x00, 0x00, 0x00, 0x00, 0x04, 0x00, 0x00, 0x00,
  0x01, 0x00, 0x00, 0x00, 0x01, 0x00, 0x00, 0x00, 0x32, 0x00, 0x00, 0x00,
  0x03, 0x00, 0x00, 0x00, 0x00, 0x00, 0x16, 0x00, 0x20, 0x00, 0x1c, 0x00,
  0x1b, 0x00, 0x14, 0x00, 0x10, 0x00, 0x0c, 0x00, 0x00, 0x00, 0x00, 0x00,
  0x08, 0x00, 0x07, 0x00, 0x16, 0x00, 0x00, 0x00, 0x00, 0x00, 0x00, 0x01,
  0x18, 0x00, 0x00, 0x00, 0x24, 0x00, 0x00, 0x00, 0x40, 0x00, 0x00, 0x00,
  0x10, 0x00, 0x00, 0x00, 0x00, 0x00, 0x00, 0x09, 0x48, 0x00, 0x00, 0x00,
  0x03, 0x00, 0x00, 0x00, 0xff, 0xff, 0xff, 0xff, 0x32, 0x00, 0x00, 0x00,
  0x03, 0x00, 0x00, 0x00, 0x94, 0xf5, 0xff, 0xff, 0x08, 0x00, 0x00, 0x00,
  0x10, 0x00, 0x00, 0x00, 0x01, 0x00, 0x00, 0x00, 0x06, 0x00, 0x00, 0x00,
  0x00, 0x00, 0x00, 0x00, 0x01, 0x00, 0x00, 0x00, 0x3c, 0x0e, 0xf8, 0x3c,
  0x0c, 0x00, 0x00, 0x00, 0x74, 0x66, 0x6c, 0x2e, 0x71, 0x75, 0x61, 0x6e,
  0x74, 0x69, 0x7a, 0x65, 0x00, 0x00, 0x00, 0x00, 0x03, 0x00, 0x00, 0x00,
  0x01, 0x00, 0x00, 0x00, 0x32, 0x00, 0x00, 0x00, 0x03, 0x00, 0x00, 0x00,
  0x4a, 0xf4, 0xff, 0xff, 0x00, 0x00, 0x00, 0x01, 0x14, 0x00, 0x00, 0x00,
  0xe8, 0x00, 0x00, 0x00, 0x0f, 0x00, 0x00, 0x00, 0x00, 0x00, 0x00, 0x09,
  0xf4, 0x00, 0x00, 0x00, 0xf4, 0xf5, 0xff, 0xff, 0x08, 0x00, 0x00, 0x00,
  0x8c, 0x00, 0x00, 0x00, 0x10, 0x00, 0x00, 0x00, 0x00, 0x00, 0x00, 0x00,
  0x00, 0x00, 0x00, 0x00, 0x00, 0x00, 0x00, 0x00, 0x00, 0x00, 0x00, 0x00,
  0x00, 0x00, 0x00, 0x00, 0x00, 0x00, 0x00, 0x00, 0x00, 0x00, 0x00, 0x00,
  0x00, 0x00, 0x00, 0x00, 0x00, 0x00, 0x00, 0x00, 0x00, 0x00, 0x00, 0x00,
  0x00, 0x00, 0x00, 0x00, 0x00, 0x00, 0x00, 0x00, 0x00, 0x00, 0x00, 0x00,
  0x00, 0x00, 0x00, 0x00, 0x00, 0x00, 0x00, 0x00, 0x00, 0x00, 0x00, 0x00,
  0x00, 0x00, 0x00, 0x00, 0x00, 0x00, 0x00, 0x00, 0x00, 0x00, 0x00, 0x00,
  0x00, 0x00, 0x00, 0x00, 0x00, 0x00, 0x00, 0x00, 0x00, 0x00, 0x00, 0x00,
  0x00, 0x00, 0x00, 0x00, 0x00, 0x00, 0x00, 0x00, 0x00, 0x00, 0x00, 0x00,
  0x00, 0x00, 0x00, 0x00, 0x00, 0x00, 0x00, 0x00, 0x00, 0x00, 0x00, 0x00,
  0x00, 0x00, 0x00, 0x00, 0x00, 0x00, 0x00, 0x00, 0x00, 0x00, 0x00, 0x00,
  0x00, 0x00, 0x00, 0x00, 0x00, 0x00, 0x00, 0x00, 0x10, 0x00, 0x00, 0x00,
  0x26, 0x44, 0x6c, 0x3b, 0xa5, 0xed, 0x39, 0x3b, 0x7b, 0x54, 0x4c, 0x3b,
  0xd3, 0xc1, 0x50, 0x3b, 0x05, 0x2b, 0x3c, 0x3b, 0x86, 0x2e, 0xef, 0x3a,
  0x20, 0x44, 0x39, 0x3b, 0x34, 0x6d, 0x2f, 0x3b, 0x1a, 0x16, 0x47, 0x3b,
  0x12, 0x35, 0x2f, 0x3b, 0x3c, 0x01, 0x4c, 0x3b, 0x2c, 0x5f, 0x3c, 0x3b,
  0x20, 0x0f, 0xf6, 0x3a, 0xd1, 0x38, 0x83, 0x3b, 0x8c, 0x0e, 0x37, 0x3b,
  0x24, 0x22, 0x44, 0x3b, 0x12, 0x00, 0x00, 0x00, 0x74, 0x66, 0x6c, 0x2e,
  0x70, 0x73, 0x65, 0x75, 0x64, 0x6f, 0x5f, 0x71, 0x63, 0x6f, 0x6e, 0x73,
  0x74, 0x37, 0x00, 0x00, 0x04, 0x00, 0x00, 0x00, 0x10, 0x00, 0x00, 0x00,
  0x01, 0x00, 0x00, 0x00, 0x07, 0x00, 0x00, 0x00, 0x03, 0x00, 0x00, 0x00,
  0x6a, 0xf5, 0xff, 0xff, 0x00, 0x00, 0x00, 0x01, 0x14, 0x00, 0x00, 0x00,
  0xe4, 0x00, 0x00, 0x00, 0x0e, 0x00, 0x00, 0x00, 0x00, 0x00, 0x00, 0x02,
  0xf0, 0x00, 0x00, 0x00, 0x14, 0xf7, 0xff, 0xff, 0x08, 0x00, 0x00, 0x00,
  0x88, 0x00, 0x00, 0x00, 0x10, 0x00, 0x00, 0x00, 0x00, 0x00, 0x00, 0x00,
  0x00, 0x00, 0x00, 0x00, 0x00, 0x00, 0x00, 0x00, 0x00, 0x00, 0x00, 0x00,
  0x00, 0x00, 0x00, 0x00, 0x00, 0x00, 0x00, 0x00, 0x00, 0x00, 0x00, 0x00,
  0x00, 0x00, 0x00, 0x00, 0x00, 0x00, 0x00, 0x00, 0x00, 0x00, 0x00, 0x00,
  0x00, 0x00, 0x00, 0x00, 0x00, 0x00, 0x00, 0x00, 0x00, 0x00, 0x00, 0x00,
  0x00, 0x00, 0x00, 0x00, 0x00, 0x00, 0x00, 0x00, 0x00, 0x00, 0x00, 0x00,
  0x00, 0x00, 0x00, 0x00, 0x00, 0x00, 0x00, 0x00, 0x00, 0x00, 0x00, 0x00,
  0x00, 0x00, 0x00, 0x00, 0x00, 0x00, 0x00, 0x00, 0x00, 0x00, 0x00, 0x00,
  0x00, 0x00, 0x00, 0x00, 0x00, 0x00, 0x00, 0x00, 0x00, 0x00, 0x00, 0x00,
  0x00, 0x00, 0x00, 0x00, 0x00, 0x00, 0x00, 0x00, 0x00, 0x00, 0x00, 0x00,
  0x00, 0x00, 0x00, 0x00, 0x00, 0x00, 0x00, 0x00, 0x00, 0x00, 0x00, 0x00,
  0x00, 0x00, 0x00, 0x00, 0x10, 0x00, 0x00, 0x00, 0x28, 0xef, 0xe4, 0x38,
  0x8e, 0x28, 0xb4, 0x38, 0x34, 0xfd, 0xc5, 0x38, 0x60, 0x47, 0xca, 0x38,
  0x23, 0x54, 0xb6, 0x38, 0x5e, 0xc2, 0x67, 0x38, 0x4c, 0x84, 0xb3, 0x38,
  0x8b, 0xfb, 0xa9, 0x38, 0x7b, 0xe8, 0xc0, 0x38, 0x27, 0xc5, 0xa9, 0x38,
  0x8a, 0xac, 0xc5, 0x38, 0xac, 0x86, 0xb6, 0x38, 0x55, 0x6c, 0x6e, 0x38,
  0xad, 0x4c, 0xfe, 0x38, 0x45, 0x60, 0xb1, 0x38, 0xfb, 0x0b, 0xbe, 0x38,
  0x12, 0x00, 0x00, 0x00, 0x74, 0x66, 0x6c, 0x2e, 0x70, 0x73, 0x65, 0x75,
  0x64, 0x6f, 0x5f, 0x71, 0x63, 0x6f, 0x6e, 0x73, 0x74, 0x36, 0x00, 0x00,
  0x01, 0x00, 0x00, 0x00, 0x10, 0x00, 0x00, 0x00, 0x7a, 0xf6, 0xff, 0xff,
  0x00, 0x00, 0x00, 0x01, 0x14, 0x00, 0x00, 0x00, 0xa8, 0x01, 0x00, 0x00,
  0x0d, 0x00, 0x00, 0x00, 0x00, 0x00, 0x00, 0x09, 0xb4, 0x01, 0x00, 0x00,
  0x24, 0xf8, 0xff, 0xff, 0x08, 0x00, 0x00, 0x00, 0x0c, 0x01, 0x00, 0x00,
  0x20, 0x00, 0x00, 0x00, 0x00, 0x00, 0x00, 0x00, 0x00, 0x00, 0x00, 0x00,
  0x00, 0x00, 0x00, 0x00, 0x00, 0x00, 0x00, 0x00, 0x00, 0x00, 0x00, 0x00,
  0x00, 0x00, 0x00, 0x00, 0x00, 0x00, 0x00, 0x00, 0x00, 0x00, 0x00, 0x00,
  0x00, 0x00, 0x00, 0x00, 0x00, 0x00, 0x00, 0x00, 0x00, 0x00, 0x00, 0x00,
  0x00, 0x00, 0x00, 0x00, 0x00, 0x00, 0x00, 0x00, 0x00, 0x00, 0x00, 0x00,
  0x00, 0x00, 0x00, 0x00, 0x00, 0x00, 0x00, 0x00, 0x00, 0x00, 0x00, 0x00,
  0x00, 0x00, 0x00, 0x00, 0x00, 0x00, 0x00, 0x00, 0x00, 0x00, 0x00, 0x00,
  0x00, 0x00, 0x00, 0x00, 0x00, 0x00, 0x00, 0x00, 0x00, 0x00, 0x00, 0x00,
  0x00, 0x00, 0x00, 0x00, 0x00, 0x00, 0x00, 0x00, 0x00, 0x00, 0x00, 0x00,
  0x00, 0x00, 0x00, 0x00, 0x00, 0x00, 0x00, 0x00, 0x00, 0x00, 0x00, 0x00,
  0x00, 0x00, 0x00, 0x00, 0x00, 0x00, 0x00, 0x00, 0x00, 0x00, 0x00, 0x00,
  0x00, 0x00, 0x00, 0x00, 0x00, 0x00, 0x00, 0x00, 0x00, 0x00, 0x00, 0x00,
  0x00, 0x00, 0x00, 0x00, 0x00, 0x00, 0x00, 0x00, 0x00, 0x00, 0x00, 0x00,
  0x00, 0x00, 0x00, 0x00, 0x00, 0x00, 0x00, 0x00, 0x00, 0x00, 0x00, 0x00,
  0x00, 0x00, 0x00, 0x00, 0x00, 0x00, 0x00, 0x00, 0x00, 0x00, 0x00, 0x00,
  0x00, 0x00, 0x00, 0x00, 0x00, 0x00, 0x00, 0x00, 0x00, 0x00, 0x00, 0x00,
  0x00, 0x00, 0x00, 0x00, 0x00, 0x00, 0x00, 0x00, 0x00, 0x00, 0x00, 0x00,
  0x00, 0x00, 0x00, 0x00, 0x00, 0x00, 0x00, 0x00, 0x00, 0x00, 0x00, 0x00,
  0x00, 0x00, 0x00, 0x00, 0x00, 0x00, 0x00, 0x00, 0x00, 0x00, 0x00, 0x00,
  0x00, 0x00, 0x00, 0x00, 0x00, 0x00, 0x00, 0x00, 0x00, 0x00, 0x00, 0x00,
  0x00, 0x00, 0x00, 0x00, 0x00, 0x00, 0x00, 0x00, 0x00, 0x00, 0x00, 0x00,
  0x00, 0x00, 0x00, 0x00, 0x00, 0x00, 0x00, 0x00, 0x00, 0x00, 0x00, 0x00,
  0x20, 0x00, 0x00, 0x00, 0xff, 0x56, 0xd4, 0x3a, 0x7c, 0xed, 0xd3, 0x3a,
  0x99, 0x02, 0xf8, 0x3a, 0x06, 0x4e, 0xd6, 0x3a, 0xe1, 0x2e, 0x08, 0x3b,
  0xe5, 0x11, 0xcb, 0x3a, 0x78, 0xed, 0xa4, 0x3a, 0xc3, 0x19, 0xac, 0x3a,
  0xe1, 0x14, 0x7a, 0x3a, 0xae, 0xa7, 0xfe, 0x3a, 0x2f, 0x55, 0x13, 0x3b,
  0x89, 0x90, 0x1e, 0x3b, 0xe0, 0x25, 0x27, 0x3b, 0x38, 0x4b, 0xab, 0x3a,
  0x2f, 0x42, 0x0b, 0x3b, 0xfa, 0xfb, 0xb2, 0x3a, 0xa2, 0xc2, 0xd5, 0x3a,
  0x6d, 0xad, 0x07, 0x3b, 0xf0, 0x85, 0xc9, 0x3a, 0x6a, 0x2a, 0x0c, 0x3b,
  0xef, 0x37, 0xb4, 0x3a, 0xe9, 0x73, 0x00, 0x3b, 0xff, 0xe1, 0xaf, 0x3a,
  0xac, 0xab, 0xb1, 0x3a, 0x33, 0xda, 0xb8, 0x3a, 0x34, 0x63, 0xb0, 0x3a,
  0x09, 0xae, 0x15, 0x3b, 0x0d, 0x77, 0xe7, 0x3a, 0xbc, 0x3d, 0x19, 0x3b,
  0xa5, 0xcf, 0x2c, 0x3b, 0xff, 0x1b, 0x5c, 0x3a, 0x09, 0xd9, 0xb4, 0x3a,
  0x12, 0x00, 0x00, 0x00, 0x74, 0x66, 0x6c, 0x2e, 0x70, 0x73, 0x65, 0x75,
  0x64, 0x6f, 0x5f, 0x71, 0x63, 0x6f, 0x6e, 0x73, 0x74, 0x35, 0x00, 0x00,
  0x04, 0x00, 0x00, 0x00, 0x20, 0x00, 0x00, 0x00, 0x01, 0x00, 0x00, 0x00,
  0x05, 0x00, 0x00, 0x00, 0x10, 0x00, 0x00, 0x00, 0x5a, 0xf8, 0xff, 0xff,
  0x00, 0x00, 0x00, 0x01, 0x14, 0x00, 0x00, 0x00, 0xa4, 0x01, 0x00, 0x00,
  0x0c, 0x00, 0x00, 0x00, 0x00, 0x00, 0x00, 0x02, 0xb0, 0x01, 0x00, 0x00,
  0x04, 0xfa, 0xff, 0xff, 0x08, 0x00, 0x00, 0x00, 0x08, 0x01, 0x00, 0x00,
  0x20, 0x00, 0x00, 0x00, 0x00, 0x00, 0x00, 0x00, 0x00, 0x00, 0x00, 0x00,
  0x00, 0x00, 0x00, 0x00, 0x00, 0x00, 0x00, 0x00, 0x00, 0x00, 0x00, 0x00,
  0x00, 0x00, 0x00, 0x00, 0x00, 0x00, 0x00, 0x00, 0x00, 0x00, 0x00, 0x00,
  0x00, 0x00, 0x00, 0x00, 0x00, 0x00, 0x00, 0x00, 0x00, 0x00, 0x00, 0x00,
  0x00, 0x00, 0x00, 0x00, 0x00, 0x00, 0x00, 0x00, 0x00, 0x00, 0x00, 0x00,
  0x00, 0x00, 0x00, 0x00, 0x00, 0x00, 0x00, 0x00, 0x00, 0x00, 0x00, 0x00,
  0x00, 0x00, 0x00, 0x00, 0x00, 0x00, 0x00, 0x00, 0x00, 0x00, 0x00, 0x00,
  0x00, 0x00, 0x00, 0x00, 0x00, 0x00, 0x00, 0x00, 0x00, 0x00, 0x00, 0x00,
  0x00, 0x00, 0x00, 0x00, 0x00, 0x00, 0x00, 0x00, 0x00, 0x00, 0x00, 0x00,
  0x00, 0x00, 0x00, 0x00, 0x00, 0x00, 0x00, 0x00, 0x00, 0x00, 0x00, 0x00,
  0x00, 0x00, 0x00, 0x00, 0x00, 0x00, 0x00, 0x00, 0x00, 0x00, 0x00, 0x00,
  0x00, 0x00, 0x00, 0x00, 0x00, 0x00, 0x00, 0x00, 0x00, 0x00, 0x00, 0x00,
  0x00, 0x00, 0x00, 0x00, 0x00, 0x00, 0x00, 0x00, 0x00, 0x00, 0x00, 0x00,
  0x00, 0x00, 0x00, 0x00, 0x00, 0x00, 0x00, 0x00, 0x00, 0x00, 0x00, 0x00,
  0x00, 0x00, 0x00, 0x00, 0x00, 0x00, 0x00, 0x00, 0x00, 0x00, 0x00, 0x00,
  0x00, 0x00, 0x00, 0x00, 0x00, 0x00, 0x00, 0x00, 0x00, 0x00, 0x00, 0x00,
  0x00, 0x00, 0x00, 0x00, 0x00, 0x00, 0x00, 0x00, 0x00, 0x00, 0x00, 0x00,
  0x00, 0x00, 0x00, 0x00, 0x00, 0x00, 0x00, 0x00, 0x00, 0x00, 0x00, 0x00,
  0x00, 0x00, 0x00, 0x00, 0x00, 0x00, 0x00, 0x00, 0x00, 0x00, 0x00, 0x00,
  0x00, 0x00, 0x00, 0x00, 0x00, 0x00, 0x00, 0x00, 0x00, 0x00, 0x00, 0x00,
  0x00, 0x00, 0x00, 0x00, 0x00, 0x00, 0x00, 0x00, 0x00, 0x00, 0x00, 0x00,
  0x00, 0x00, 0x00, 0x00, 0x00, 0x00, 0x00, 0x00, 0x20, 0x00, 0x00, 0x00,
  0x0f, 0x5f, 0xdc, 0x37, 0x8f, 0xf1, 0xdb, 0x37, 0x07, 0xb2, 0x00, 0x38,
  0x1d, 0x69, 0xde, 0x37, 0x86, 0x55, 0x0d, 0x38, 0x33, 0xc0, 0xd2, 0x37,
  0x72, 0x2a, 0xab, 0x37, 0x32, 0x9c, 0xb2, 0x37, 0x32, 0xc5, 0x81, 0x37,
  0xbd, 0x24, 0x04, 0x38, 0xca, 0xe7, 0x18, 0x38, 0xe6, 0x8f, 0x24, 0x38,
  0x5a, 0x78, 0x2d, 0x38, 0xd7, 0xc5, 0xb1, 0x37, 0x9c, 0x86, 0x10, 0x38,
  0x10, 0xc1, 0xb9, 0x37, 0x73, 0xd8, 0xdd, 0x37, 0x2d, 0xcf, 0x0c, 0x38,
  0x44, 0x25, 0xd1, 0x37, 0xa0, 0x77, 0x11, 0x38, 0xf8, 0x08, 0xbb, 0x37,
  0xb4, 0x4f, 0x05, 0x38, 0x0d, 0x89, 0xb6, 0x37, 0x09, 0x64, 0xb8, 0x37,
  0x1b, 0xd8, 0xbf, 0x37, 0x25, 0x0f, 0xb7, 0x37, 0x5e, 0x57, 0x1b, 0x38,
  0x4d, 0x38, 0xf0, 0x37, 0x8d, 0x09, 0x1f, 0x38, 0xf5, 0x58, 0x33, 0x38,
  0x4b, 0x6f, 0x64, 0x37, 0x2a, 0xb0, 0xbb, 0x37, 0x12, 0x00, 0x00, 0x00,
  0x74, 0x66, 0x6c, 0x2e, 0x70, 0x73, 0x65, 0x75, 0x64, 0x6f, 0x5f, 0x71,
  0x63, 0x6f, 0x6e, 0x73, 0x74, 0x34, 0x00, 0x00, 0x01, 0x00, 0x00, 0x00,
  0x20, 0x00, 0x00, 0x00, 0x2a, 0xfa, 0xff, 0xff, 0x00, 0x00, 0x00, 0x01,
  0x14, 0x00, 0x00, 0x00, 0xa8, 0x01, 0x00, 0x00, 0x0b, 0x00, 0x00, 0x00,
  0x00, 0x00, 0x00, 0x09, 0xb4, 0x01, 0x00, 0x00, 0xd4, 0xfb, 0xff, 0xff,
  0x08, 0x00, 0x00, 0x00, 0x0c, 0x01, 0x00, 0x00, 0x20, 0x00, 0x00, 0x00,
  0x00, 0x00, 0x00, 0x00, 0x00, 0x00, 0x00, 0x00, 0x00, 0x00, 0x00, 0x00,
  0x00, 0x00, 0x00, 0x00, 0x00, 0x00, 0x00, 0x00, 0x00, 0x00, 0x00, 0x00,
  0x00, 0x00, 0x00, 0x00, 0x00, 0x00, 0x00, 0x00, 0x00, 0x00, 0x00, 0x00,
  0x00, 0x00, 0x00, 0x00, 0x00, 0x00, 0x00, 0x00, 0x00, 0x00, 0x00, 0x00,
  0x00, 0x00, 0x00, 0x00, 0x00, 0x00, 0x00, 0x00, 0x00, 0x00, 0x00, 0x00,
  0x00, 0x00, 0x00, 0x00, 0x00, 0x00, 0x00, 0x00, 0x00, 0x00, 0x00, 0x00,
  0x00, 0x00, 0x00, 0x00, 0x00, 0x00, 0x00, 0x00, 0x00, 0x00, 0x00, 0x00,
  0x00, 0x00, 0x00, 0x00, 0x00, 0x00, 0x00, 0x00, 0x00, 0x00, 0x00, 0x00,
  0x00, 0x00, 0x00, 0x00, 0x00, 0x00, 0x00, 0x00, 0x00, 0x00, 0x00, 0x00,
  0x00, 0x00, 0x00, 0x00, 0x00, 0x00, 0x00, 0x00, 0x00, 0x00, 0x00, 0x00,
  0x00, 0x00, 0x00, 0x00, 0x00, 0x00, 0x00, 0x00, 0x00, 0x00, 0x00, 0x00,
  0x00, 0x00, 0x00, 0x00, 0x00, 0x00, 0x00, 0x00, 0x00, 0x00, 0x00, 0x00,
  0x00, 0x00, 0x00, 0x00, 0x00, 0x00, 0x00, 0x00, 0x00, 0x00, 0x00, 0x00,
  0x00, 0x00, 0x00, 0x00, 0x00, 0x00, 0x00, 0x00, 0x00, 0x00, 0x00, 0x00,
  0x00, 0x00, 0x00, 0x00, 0x00, 0x00, 0x00, 0x00, 0x00, 0x00, 0x00, 0x00,
  0x00, 0x00, 0x00, 0x00, 0x00, 0x00, 0x00, 0x00, 0x00, 0x00, 0x00, 0x00,
  0x00, 0x00, 0x00, 0x00, 0x00, 0x00, 0x00, 0x00, 0x00, 0x00, 0x00, 0x00,
  0x00, 0x00, 0x00, 0x00, 0x00, 0x00, 0x00, 0x00, 0x00, 0x00, 0x00, 0x00,
  0x00, 0x00, 0x00, 0x00, 0x00, 0x00, 0x00, 0x00, 0x00, 0x00, 0x00, 0x00,
  0x00, 0x00, 0x00, 0x00, 0x00, 0x00, 0x00, 0x00, 0x00, 0x00, 0x00, 0x00,
  0x00, 0x00, 0x00, 0x00, 0x00, 0x00, 0x00, 0x00, 0x00, 0x00, 0x00, 0x00,
  0x00, 0x00, 0x00, 0x00, 0x00, 0x00, 0x00, 0x00, 0x20, 0x00, 0x00, 0x00,
  0x01, 0x21, 0xfd, 0x3a, 0x3d, 0x2b, 0xd3, 0x3a, 0x65, 0xd8, 0xa6, 0x3a,
  0x18, 0xf2, 0x03, 0x3b, 0xa8, 0xa8, 0x1b, 0x3b, 0x48, 0x94, 0x7f, 0x3a,
  0xd8, 0xa0, 0xa5, 0x3a, 0xb7, 0x3c, 0x06, 0x3b, 0x5b, 0x54, 0xf5, 0x3a,
  0xcd, 0xe1, 0x17, 0x3b, 0x79, 0x7a, 0xf3, 0x3a, 0xe9, 0xb6, 0xe0, 0x3a,
  0xf1, 0xe1, 0xf0, 0x3a, 0xea, 0x80, 0xd3, 0x3a, 0xd4, 0xe9, 0xc3, 0x3a,
  0xd4, 0x02, 0xff, 0x3a, 0xb3, 0x83, 0xdf, 0x3a, 0x30, 0x40, 0xbf, 0x3a,
  0x57, 0x0f, 0x16, 0x3b, 0x2f, 0xb3, 0xf3, 0x3a, 0x42, 0x6f, 0xbd, 0x3a,
  0x6a, 0xf6, 0x24, 0x3b, 0xc5, 0x06, 0xf9, 0x3a, 0x29, 0x59, 0xbd, 0x3a,
  0x5a, 0x5a, 0xde, 0x3a, 0xec, 0x40, 0xc3, 0x3a, 0xcf, 0x5f, 0xec, 0x3a,
  0xb7, 0x7a, 0xf5, 0x3a, 0xde, 0xcc, 0xea, 0x3a, 0x83, 0xd0, 0xd1, 0x3a,
  0x34, 0x7d, 0x04, 0x3b, 0x76, 0xf1, 0x1c, 0x3b, 0x12, 0x00, 0x00, 0x00,
  0x74, 0x66, 0x6c, 0x2e, 0x70, 0x73, 0x65, 0x75, 0x64, 0x6f, 0x5f, 0x71,
  0x63, 0x6f, 0x6e, 0x73, 0x74, 0x33, 0x00, 0x00, 0x04, 0x00, 0x00, 0x00,
  0x20, 0x00, 0x00, 0x00, 0x01, 0x00, 0x00, 0x00, 0x03, 0x00, 0x00, 0x00,
  0x20, 0x00, 0x00, 0x00, 0x0a, 0xfc, 0xff, 0xff, 0x00, 0x00, 0x00, 0x01,
  0x14, 0x00, 0x00, 0x00, 0xa4, 0x01, 0x00, 0x00, 0x0a, 0x00, 0x00, 0x00,
  0x00, 0x00, 0x00, 0x02, 0xb0, 0x01, 0x00, 0x00, 0xb4, 0xfd, 0xff, 0xff,
  0x08, 0x00, 0x00, 0x00, 0x08, 0x01, 0x00, 0x00, 0x20, 0x00, 0x00, 0x00,
  0x00, 0x00, 0x00, 0x00, 0x00, 0x00, 0x00, 0x00, 0x00, 0x00, 0x00, 0x00,
  0x00, 0x00, 0x00, 0x00, 0x00, 0x00, 0x00, 0x00, 0x00, 0x00, 0x00, 0x00,
  0x00, 0x00, 0x00, 0x00, 0x00, 0x00, 0x00, 0x00, 0x00, 0x00, 0x00, 0x00,
  0x00, 0x00, 0x00, 0x00, 0x00, 0x00, 0x00, 0x00, 0x00, 0x00, 0x00, 0x00,
  0x00, 0x00, 0x00, 0x00, 0x00, 0x00, 0x00, 0x00, 0x00, 0x00, 0x00, 0x00,
  0x00, 0x00, 0x00, 0x00, 0x00, 0x00, 0x00, 0x00, 0x00, 0x00, 0x00, 0x00,
  0x00, 0x00, 0x00, 0x00, 0x00, 0x00, 0x00, 0x00, 0x00, 0x00, 0x00, 0x00,
  0x00, 0x00, 0x00, 0x00, 0x00, 0x00, 0x00, 0x00, 0x00, 0x00, 0x00, 0x00,
  0x00, 0x00, 0x00, 0x00, 0x00, 0x00, 0x00, 0x00, 0x00, 0x00, 0x00, 0x00,
  0x00, 0x00, 0x00, 0x00, 0x00, 0x00, 0x00, 0x00, 0x00, 0x00, 0x00, 0x00,
  0x00, 0x00, 0x00, 0x00, 0x00, 0x00, 0x00, 0x00, 0x00, 0x00, 0x00, 0x00,
  0x00, 0x00, 0x00, 0x00, 0x00, 0x00, 0x00, 0x00, 0x00, 0x00, 0x00, 0x00,
  0x00, 0x00, 0x00, 0x00, 0x00, 0x00, 0x00, 0x00, 0x00, 0x00, 0x00, 0x00,
  0x00, 0x00, 0x00, 0x00, 0x00, 0x00, 0x00, 0x00, 0x00, 0x00, 0x00, 0x00,
  0x00, 0x00, 0x00, 0x00, 0x00, 0x00, 0x00, 0x00, 0x00, 0x00, 0x00, 0x00,
  0x00, 0x00, 0x00, 0x00, 0x00, 0x00, 0x00, 0x00, 0x00, 0x00, 0x00, 0x00,
  0x00, 0x00, 0x00, 0x00, 0x00, 0x00, 0x00, 0x00, 0x00, 0x00, 0x00, 0x00,
  0x00, 0x00, 0x00, 0x00, 0x00, 0x00, 0x00, 0x00, 0x00, 0x00, 0x00, 0x00,
  0x00, 0x00, 0x00, 0x00, 0x00, 0x00, 0x00, 0x00, 0x00, 0x00, 0x00, 0x00,
  0x00, 0x00, 0x00, 0x00, 0x00, 0x00, 0x00, 0x00, 0x00, 0x00, 0x00, 0x00,
  0x00, 0x00, 0x00, 0x00, 0x00, 0x00, 0x00, 0x00, 0x00, 0x00, 0x00, 0x00,
  0x00, 0x00, 0x00, 0x00, 0x20, 0x00, 0x00, 0x00, 0xef, 0x32, 0xdd, 0x37,
  0x25, 0x88, 0xb8, 0x37, 0x9b, 0xcc, 0x91, 0x37, 0x93, 0x9a, 0xe6, 0x37,
  0x1a, 0x06, 0x08, 0x38, 0x15, 0x57, 0x5f, 0x37, 0x5a, 0xbc, 0x90, 0x37,
